<unk>	0
<s>	0
</s>	0
,	-2.81486
.	-3.07253
▁the	-4.0133
s	-4.09792
▁in	-4.4035
'	-4.46759
▁to	-4.48153
▁of	-4.54838
▁die	-4.60995
▁a	-4.61336
▁and	-4.65332
▁und	-4.73607
▁that	-4.81657
▁I	-4.87888
▁	-5.0062
▁der	-5.04815
▁ist	-5.13189
▁is	-5.13432
▁you	-5.15582
▁it	-5.20312
▁das	-5.23177
▁zu	-5.25933
▁we	-5.29061
▁ich	-5.39924
▁wir	-5.41341
en	-5.42344
n	-5.46184
▁was	-5.47714
-	-5.48585
▁es	-5.4897
t	-5.50793
▁And	-5.51668
▁this	-5.58515
▁Sie	-5.61773
▁ein	-5.64143
?	-5.65382
▁sie	-5.6591
:	-5.68441
e	-5.72657
▁nicht	-5.7313
▁"	-5.74048
▁von	-5.74636
▁--	-5.75455
▁an	-5.75917
▁eine	-5.77314
▁dass	-5.77961
▁so	-5.80248
▁Und	-5.85656
▁den	-5.89679
▁for	-5.95157
▁mit	-5.95629
▁are	-5.98398
▁have	-6.0028
▁auf	-6.01082
▁they	-6.04516
▁on	-6.06234
▁So	-6.07902
▁with	-6.11391
▁Ich	-6.13651
▁wie	-6.14599
▁sich	-6.15187
re	-6.15696
▁can	-6.15861
▁be	-6.16427
▁sind	-6.19102
▁what	-6.22364
▁haben	-6.24303
▁about	-6.25194
▁für	-6.25416
▁all	-6.2652
▁man	-6.29828
m	-6.30719
▁war	-6.32884
er	-6.37359
▁at	-6.39799
▁not	-6.41252
▁do	-6.42524
▁als	-6.4314
▁Das	-6.4421
▁um	-6.44571
▁as	-6.48759
▁Es	-6.49191
▁there	-6.49624
d	-6.51325
▁diese	-6.51591
▁one	-6.52307
."	-6.53593
▁It	-6.54315
▁like	-6.5461
▁people	-6.54795
▁my	-6.55224
▁im	-6.56597
▁dem	-6.57146
▁from	-6.57504
ing	-6.57629
▁Wir	-6.58163
▁also	-6.63458
▁wenn	-6.64294
▁uns	-6.65752
▁aus	-6.6632
▁but	-6.66634
▁einen	-6.68734
▁just	-6.71917
▁or	-6.72718
▁We	-6.73175
▁our	-6.73604
▁können	-6.73731
▁werden	-6.74916
▁er	-6.75642
r	-6.76003
▁oder	-6.77013
▁out	-6.78355
▁these	-6.7862
▁But	-6.78734
▁if	-6.79198
▁me	-6.79242
▁very	-6.79357
▁hat	-6.79378
▁über	-6.79664
▁des	-6.81584
▁The	-6.82207
▁know	-6.82848
▁going	-6.85642
▁aber	-6.8593
▁auch	-6.87204
▁by	-6.87306
▁up	-6.87362
▁them	-6.89003
▁einer	-6.89563
▁kann	-6.90236
▁Die	-6.90352
▁when	-6.90591
▁Aber	-6.9113
ve	-6.91615
▁he	-6.91811
▁einem	-6.92591
▁because	-6.93103
▁more	-6.93898
▁had	-6.94298
ed	-6.94425
▁think	-6.95388
▁see	-6.96291
▁wird	-6.96699
▁nur	-6.97139
▁sehr	-6.97206
▁which	-6.99542
▁Menschen	-7.0145
▁who	-7.01754
▁their	-7.01918
▁hier	-7.02082
▁your	-7.0274
▁will	-7.03027
▁were	-7.031
▁really	-7.04142
▁how	-7.04739
▁mich	-7.04878
▁would	-7.05157
▁get	-7.0586
▁♫	-7.06478
"	-7.06528
▁In	-7.06789
▁gibt	-7.07184
▁–	-7.0891
▁dann	-7.09893
▁sein	-7.11162
▁here	-7.14041
▁time	-7.1437
▁us	-7.15014
▁world	-7.17322
▁has	-7.17561
▁This	-7.17992
▁etwas	-7.18291
▁nach	-7.18292
▁noch	-7.19223
▁You	-7.20001
es	-7.20457
▁sehen	-7.22285
▁habe	-7.22374
▁into	-7.22638
▁some	-7.22914
▁way	-7.23567
▁actually	-7.24136
▁mir	-7.24407
▁don	-7.24739
▁dieser	-7.25019
▁vor	-7.26767
▁then	-7.28074
▁things	-7.29201
▁years	-7.29701
▁go	-7.30442
▁where	-7.31062
▁now	-7.31602
▁other	-7.32071
▁want	-7.32197
▁Welt	-7.3242
▁mehr	-7.32436
▁Now	-7.33497
▁Wenn	-7.34976
▁could	-7.35234
▁bei	-7.36713
▁alle	-7.37072
▁They	-7.37553
▁make	-7.37893
;	-7.38528
ll	-7.40396
▁been	-7.40576
▁wurde	-7.4289
▁am	-7.43295
▁said	-7.45093
▁durch	-7.472
▁Ihnen	-7.47561
▁Er	-7.48583
▁something	-7.49241
▁right	-7.5035
▁wirklich	-7.51146
▁machen	-7.51421
▁no	-7.5159
▁meine	-7.52462
▁much	-7.52557
▁zum	-7.52876
▁two	-7.53029
▁than	-7.53238
▁first	-7.54168
▁immer	-7.54304
▁those	-7.55086
▁weil	-7.56496
ly	-7.56975
▁thing	-7.57631
▁over	-7.58074
▁back	-7.58352
▁tun	-7.58582
▁got	-7.58659
▁little	-7.5866
▁Also	-7.59173
y	-7.59403
▁look	-7.60011
?"	-7.62839
▁unsere	-7.63422
▁say	-7.63706
▁da	-7.63888
▁That	-7.64573
▁viel	-7.64648
▁hatte	-7.64793
▁Zeit	-7.65686
▁keine	-7.6759
▁work	-7.67847
▁ihre	-7.68538
▁need	-7.69198
▁only	-7.69537
▁life	-7.70666
▁most	-7.71352
▁kind	-7.71787
▁dieses	-7.7189
▁Leute	-7.72162
▁she	-7.72177
▁Leben	-7.72607
▁viele	-7.73176
▁müssen	-7.73186
▁his	-7.73808
▁wissen	-7.73914
▁Was	-7.75496
▁diesem	-7.75841
▁lot	-7.76067
▁even	-7.7608
▁wo	-7.76383
▁her	-7.76403
▁take	-7.76632
▁einfach	-7.77202
▁Dinge	-7.77699
▁sagen	-7.77774
▁sagte	-7.78158
▁many	-7.78533
▁bin	-7.78621
▁waren	-7.78658
▁Jahren	-7.78726
▁zwei	-7.79932
▁Art	-7.8016
▁diesen	-7.80949
▁-	-7.81144
▁andere	-7.81427
▁new	-7.81785
▁good	-7.82827
▁around	-7.83234
▁different	-7.83245
▁did	-7.83441
▁What	-7.83919
l	-7.83981
▁There	-7.84075
▁He	-7.84606
▁jetzt	-7.8492
▁anderen	-7.8596
▁A	-7.86789
in	-7.87055
▁down	-7.87062
▁ihr	-7.87482
▁würde	-7.90351
▁through	-7.92033
▁du	-7.92112
▁same	-7.93419
▁come	-7.93709
▁Der	-7.94532
▁alles	-7.94607
▁damit	-7.94866
▁zur	-7.9502
▁Man	-7.95245
▁use	-7.96166
▁selbst	-7.96686
▁every	-7.96707
▁being	-7.97272
▁bis	-7.97896
▁geht	-7.98313
st	-7.9849
▁eines	-7.98892
▁Jahre	-7.99342
▁put	-7.99696
▁doing	-7.99952
te	-8.00752
▁gut	-8.01638
▁three	-8.0221
▁Wie	-8.02736
!	-8.02865
▁muss	-8.03252
▁tell	-8.04115
▁day	-8.04308
▁If	-8.04458
▁10	-8.05381
▁wieder	-8.05525
▁well	-8.07316
▁called	-8.078
▁mein	-8.08282
al	-8.08727
▁schon	-8.09117
a	-8.09832
S	-8.10424
▁human	-8.10916
▁vielleicht	-8.11407
c	-8.11856
▁Well	-8.12144
▁möchte	-8.12246
▁seine	-8.12315
▁percent	-8.12392
▁Ein	-8.12402
▁made	-8.1242
▁any	-8.12433
▁ihnen	-8.13289
▁Kinder	-8.13952
▁Diese	-8.14948
▁denn	-8.15162
▁fact	-8.15905
▁find	-8.15921
▁davon	-8.17379
▁year	-8.17709
▁20	-8.18033
▁Nun	-8.18646
▁ob	-8.1892
▁why	-8.19273
▁change	-8.19326
▁ganz	-8.19878
▁Geschichte	-8.20172
▁great	-8.20255
▁heute	-8.2114
▁should	-8.21567
▁ab	-8.22033
▁today	-8.2266
▁idea	-8.23392
▁talk	-8.23526
▁own	-8.23869
▁zurück	-8.23874
▁didn	-8.24
▁last	-8.24604
▁drei	-8.25127
▁hatten	-8.25287
▁Hier	-8.25292
▁ihn	-8.25731
ung	-8.26097
▁könnte	-8.26645
▁let	-8.26754
▁dort	-8.27277
▁einige	-8.27447
▁Jahr	-8.27562
▁thought	-8.2778
▁after	-8.28125
▁course	-8.2829
▁started	-8.28326
▁before	-8.29394
▁give	-8.29693
o	-8.29761
▁still	-8.29952
▁wollen	-8.29957
▁went	-8.30946
▁paar	-8.31257
▁meiner	-8.31316
▁important	-8.31421
▁genau	-8.31979
▁gehen	-8.32107
▁problem	-8.32229
▁unter	-8.32487
▁werde	-8.32573
▁part	-8.32575
▁tatsächlich	-8.32609
▁darüber	-8.32613
▁another	-8.32676
▁big	-8.32732
▁nun	-8.3321
▁might	-8.33242
▁better	-8.33379
▁wurden	-8.33718
▁Thank	-8.34223
▁start	-8.34798
▁never	-8.35459
▁weiter	-8.35723
g	-8.36095
▁Problem	-8.36738
▁sondern	-8.36944
▁able	-8.36946
▁brain	-8.37067
▁off	-8.37365
▁show	-8.37965
▁system	-8.38268
▁ago	-8.38379
▁Ihre	-8.39488
▁Teil	-8.39571
▁Beispiel	-8.39677
▁gab	-8.39853
▁bit	-8.40084
▁story	-8.40678
▁place	-8.40745
▁unserer	-8.40876
▁together	-8.40913
de	-8.40971
▁Dies	-8.41087
▁next	-8.411
▁came	-8.4113
▁him	-8.4115
▁S	-8.41535
▁water	-8.4162
k	-8.41861
▁wäre	-8.41874
▁neue	-8.41896
▁Als	-8.42283
f	-8.4272
▁long	-8.42975
▁does	-8.4315
▁again	-8.43395
▁few	-8.44359
▁denke	-8.44804
▁kommen	-8.44818
I	-8.44848
▁macht	-8.45152
▁vom	-8.45445
▁kein	-8.457
▁dazu	-8.46047
▁mean	-8.46082
▁denken	-8.46491
▁between	-8.46682
▁sogar	-8.46831
▁Tag	-8.4716
ten	-8.4753
▁each	-8.47745
▁weiß	-8.48166
▁zwischen	-8.4818
▁finden	-8.48761
▁question	-8.48781
h	-8.48832
▁gemacht	-8.48919
▁technology	-8.49095
▁end	-8.49113
▁love	-8.49793
▁einmal	-8.49837
▁used	-8.49844
▁zusammen	-8.49949
▁When	-8.49995
▁B	-8.50171
▁gerade	-8.50301
▁real	-8.50637
▁found	-8.51038
▁E	-8.51457
▁kommt	-8.51764
▁ohne	-8.51771
▁Frage	-8.5216
▁un	-8.52369
▁point	-8.52477
▁Wasser	-8.52644
▁glaube	-8.52733
▁too	-8.52779
▁looking	-8.53107
▁data	-8.53376
▁example	-8.53409
▁understand	-8.53441
▁New	-8.53555
▁geben	-8.5392
▁ver	-8.54012
▁Frauen	-8.54361
▁sort	-8.54525
▁done	-8.54728
▁Da	-8.54825
▁Internet	-8.55355
▁Arbeit	-8.55445
▁denen	-8.55556
▁zeigen	-8.56042
▁passiert	-8.56423
▁Land	-8.56428
▁doesn	-8.56573
▁Because	-8.56679
▁ihren	-8.56747
▁women	-8.57045
▁ganze	-8.57055
▁live	-8.57467
▁unser	-8.57729
▁nie	-8.57756
▁ersten	-8.58208
▁dafür	-8.58284
▁konnte	-8.5845
▁whole	-8.59034
▁würden	-8.59052
▁million	-8.59361
den	-8.59504
p	-8.59608
▁call	-8.59712
th	-8.59729
▁verstehen	-8.59745
▁wanted	-8.59896
▁Eine	-8.60039
▁four	-8.60316
▁sieht	-8.60414
an	-8.60651
▁trying	-8.6112
i	-8.61513
▁mal	-8.61617
▁believe	-8.61914
▁ja	-8.61992
▁jeder	-8.62047
▁etwa	-8.62255
▁school	-8.62361
▁erste	-8.62396
▁daran	-8.62454
▁working	-8.62725
▁person	-8.62904
▁Millionen	-8.62999
be	-8.63125
▁away	-8.63125
▁ever	-8.63222
▁Prozent	-8.63455
ü	-8.63752
▁während	-8.64001
▁sollte	-8.64265
▁welche	-8.64788
▁try	-8.6521
▁children	-8.65586
▁always	-8.65662
,"	-8.66163
le	-8.66214
▁große	-8.66604
▁Mal	-8.66899
▁warum	-8.67045
▁sollten	-8.67072
▁50	-8.67303
sten	-8.67468
▁30	-8.67485
▁dies	-8.67488
▁fast	-8.6759
▁Geld	-8.67609
▁letzten	-8.67672
▁meisten	-8.6784
▁lassen	-8.68036
u	-8.68198
▁feel	-8.68346
▁Daten	-8.6845
b	-8.6851
▁may	-8.68948
▁meinem	-8.69356
ge	-8.69469
▁besser	-8.69551
▁Idee	-8.69567
▁help	-8.69632
▁country	-8.69731
▁its	-8.70053
▁Gehirn	-8.70073
▁design	-8.70338
▁könnten	-8.70689
▁wollte	-8.70738
ers	-8.70993
dem	-8.71055
▁100	-8.71186
▁ging	-8.71423
▁meinen	-8.71521
▁create	-8.71556
▁ihrer	-8.71844
▁pro	-8.71925
▁U	-8.71926
▁using	-8.71933
▁Bild	-8.72075
▁leben	-8.72239
▁sprechen	-8.72541
▁ziemlich	-8.72855
▁heraus	-8.72874
▁best	-8.73405
▁five	-8.73492
▁arbeiten	-8.73568
▁All	-8.73749
▁space	-8.73822
▁maybe	-8.73995
▁natürlich	-8.74406
▁power	-8.74467
▁information	-8.74858
▁Weg	-8.74858
▁bekommen	-8.75059
▁thinking	-8.75079
▁hin	-8.75132
▁sagt	-8.75293
▁How	-8.753
▁light	-8.75424
▁dabei	-8.75474
▁number	-8.75843
ern	-8.75897
z	-8.76048
▁become	-8.76109
▁kids	-8.76189
▁high	-8.76193
▁TED	-8.76228
▁China	-8.76442
ä	-8.7655
▁means	-8.76552
▁money	-8.767
▁took	-8.7698
▁wichtig	-8.77709
▁One	-8.77829
▁left	-8.77865
ic	-8.77932
to	-8.78205
▁quite	-8.78427
▁everything	-8.7868
▁home	-8.79111
▁Ende	-8.79111
▁old	-8.79481
▁second	-8.79518
▁kam	-8.79553
▁small	-8.79598
▁nehmen	-8.79927
ra	-8.80252
▁sense	-8.80341
em	-8.8045
▁weniger	-8.8059
▁food	-8.80799
▁My	-8.80888
▁getting	-8.81113
▁Grund	-8.81295
▁Dollar	-8.81408
ste	-8.81605
▁future	-8.81724
B	-8.81791
▁darauf	-8.81816
▁These	-8.81977
▁doch	-8.82061
▁hand	-8.82178
▁hard	-8.82299
▁Raum	-8.82993
D	-8.8317
▁enough	-8.8352
▁Vor	-8.83728
▁bedeutet	-8.83988
▁happened	-8.83988
▁ge	-8.84038
▁kleinen	-8.84045
▁vier	-8.84448
▁Technologie	-8.8448
▁She	-8.84494
▁15	-8.84758
▁Dank	-8.84789
▁...	-8.84949
A	-8.8506
▁eigentlich	-8.85079
▁dachte	-8.85121
sch	-8.8521
▁energy	-8.85349
▁Okay	-8.85359
▁An	-8.85425
▁building	-8.86082
▁probably	-8.86227
▁social	-8.86302
▁comes	-8.86474
▁less	-8.86694
▁half	-8.86807
or	-8.86849
▁Sache	-8.86993
▁brauchen	-8.87275
▁nichts	-8.87349
▁kleine	-8.87487
▁interesting	-8.8749
▁stuff	-8.88007
▁Im	-8.88076
▁Mann	-8.88353
▁Dann	-8.88434
▁ask	-8.88805
▁body	-8.88935
ch	-8.88956
▁jemand	-8.89058
▁making	-8.8907
▁play	-8.89077
▁talking	-8.89176
ig	-8.89578
▁build	-8.89882
▁unseren	-8.89925
▁without	-8.90795
▁Here	-8.90943
▁such	-8.91034
▁coming	-8.91069
▁gesehen	-8.91185
▁told	-8.91257
▁Seite	-8.91322
▁Computer	-8.91467
▁ihm	-8.9156
▁re	-8.91641
▁großen	-8.9171
▁bringen	-8.91712
▁Denn	-8.92084
▁For	-8.92156
▁dollars	-8.92222
▁pretty	-8.9239
▁anything	-8.92599
on	-8.92608
▁Ihr	-8.92739
▁Weise	-8.92817
▁Auf	-8.92945
▁car	-8.93364
▁countries	-8.93544
▁side	-8.93718
▁lives	-8.94442
▁bring	-8.94791
▁happen	-8.95068
▁York	-8.95229
▁Stadt	-8.95259
▁science	-8.9536
▁moment	-8.95602
▁simple	-8.95848
ation	-8.96039
ro	-8.9615
▁richtig	-8.96165
▁Frau	-8.96427
▁times	-8.96655
▁across	-8.9688
▁Zukunft	-8.97085
▁hätte	-8.97205
ur	-8.97326
▁OK	-8.9736
▁else	-8.97523
▁bad	-8.9754
▁Menge	-8.97755
Ich	-8.97757
▁Africa	-8.97769
▁Let	-8.97856
▁ganzen	-8.9824
▁experience	-8.98489
▁living	-8.98526
▁Energie	-8.98692
▁Person	-8.988
ie	-8.98826
▁learn	-8.98962
▁versuchen	-8.99075
▁Ort	-8.99274
▁jeden	-8.99328
▁gegen	-8.99358
▁gesagt	-8.99649
▁später	-8.99667
ieren	-8.9968
▁Mit	-9.00093
▁care	-9.00606
▁asked	-9.00638
▁No	-9.00881
ne	-9.00885
▁As	-9.00955
▁room	-9.00971
▁far	-9.01005
▁move	-9.01151
▁keinen	-9.01433
▁T	-9.0149
▁goes	-9.01877
▁schnell	-9.02104
▁process	-9.02325
▁Kind	-9.02434
▁sicher	-9.02495
▁seit	-9.02645
▁mind	-9.02795
▁glauben	-9.02838
▁later	-9.02856
▁happens	-9.03215
▁reason	-9.03334
▁lernen	-9.03539
▁Körper	-9.03596
▁saw	-9.03654
C	-9.03743
▁möglich	-9.03757
▁open	-9.03836
▁seen	-9.04067
▁picture	-9.04203
▁wenig	-9.04215
▁computer	-9.04592
▁Vielen	-9.04852
▁eigenen	-9.04938
▁per	-9.04974
▁fünf	-9.05163
▁Be	-9.05246
▁says	-9.05434
▁heißt	-9.05435
▁funktioniert	-9.05704
▁beim	-9.05745
▁single	-9.05755
▁Danke	-9.05869
▁vielen	-9.05936
▁40	-9.06125
▁C	-9.06444
▁stellen	-9.06799
▁family	-9.0707
▁Fall	-9.07151
▁Du	-9.07196
▁global	-9.07213
▁health	-9.07258
▁schaffen	-9.07359
▁case	-9.07374
▁Moment	-9.07396
▁city	-9.07587
w	-9.07686
▁men	-9.07807
▁business	-9.07961
▁inside	-9.07969
▁konnten	-9.08131
▁top	-9.08236
▁set	-9.08276
▁Erde	-9.08292
▁having	-9.08529
▁lange	-9.0854
▁project	-9.08566
▁Earth	-9.08659
▁Ja	-9.09083
▁basically	-9.09268
▁gute	-9.09484
et	-9.09504
▁almost	-9.09514
▁wahrscheinlich	-9.09538
▁nutzen	-9.09668
▁Licht	-9.09669
▁Natur	-9.09702
▁book	-9.09902
▁Warum	-9.09934
▁while	-9.10135
▁once	-9.10298
▁makes	-9.10523
▁System	-9.10679
ri	-9.10754
▁Jetzt	-9.10785
ion	-9.10877
T	-9.10986
▁Mutter	-9.1101
▁3	-9.11409
▁yet	-9.11514
▁hope	-9.11521
▁jedes	-9.1155
able	-9.11603
▁planet	-9.11716
▁possible	-9.11892
el	-9.11937
▁Ver	-9.12006
▁answer	-9.1203
▁G	-9.12034
▁saying	-9.12125
▁Probleme	-9.1215
▁USA	-9.1215
▁already	-9.12399
▁nothing	-9.12527
ity	-9.12563
▁both	-9.12593
▁problems	-9.12647
▁guy	-9.1279
▁whether	-9.1291
▁matter	-9.13052
▁six	-9.13149
▁zeigt	-9.13312
".	-9.13389
▁hoch	-9.13416
▁Hand	-9.13536
▁ways	-9.13636
R	-9.13668
▁wrong	-9.13939
▁read	-9.14154
▁de	-9.14213
▁remember	-9.1436
il	-9.14376
▁M	-9.14548
▁helfen	-9.14594
▁unserem	-9.14795
▁sah	-9.14807
▁someone	-9.1487
K	-9.1491
▁days	-9.15146
▁young	-9.15412
▁public	-9.15822
▁keep	-9.16001
▁looked	-9.16225
▁form	-9.16477
▁history	-9.16691
▁erzählen	-9.16793
▁seiner	-9.16903
▁billion	-9.17038
▁myself	-9.17091
▁couple	-9.17494
▁order	-9.17514
▁community	-9.17626
▁Why	-9.17666
▁heard	-9.17666
▁jede	-9.17685
li	-9.17741
▁Um	-9.17771
▁DNA	-9.17916
▁genug	-9.1803
▁true	-9.18032
▁cancer	-9.1804
▁nächsten	-9.18043
▁lang	-9.18306
it	-9.18696
▁K	-9.1895
▁begann	-9.18959
▁gehört	-9.1915
▁face	-9.19251
▁sei	-9.19267
▁bauen	-9.19402
▁ideas	-9.19605
▁sure	-9.19905
▁neuen	-9.19925
▁within	-9.19947
ver	-9.20068
▁cells	-9.20123
▁Buch	-9.2042
▁Lebens	-9.20441
▁head	-9.20484
▁under	-9.20705
▁18	-9.20722
▁United	-9.21038
▁often	-9.21385
▁je	-9.21642
▁words	-9.21666
▁child	-9.21757
▁run	-9.22115
▁ungefähr	-9.22154
ness	-9.22232
der	-9.22253
▁universe	-9.22409
▁language	-9.2247
ter	-9.22584
▁amazing	-9.22664
▁control	-9.22737
▁built	-9.22746
▁age	-9.22769
ist	-9.22948
▁CA	-9.23016
▁liegt	-9.23035
▁Do	-9.23036
P	-9.23075
▁imagine	-9.23134
▁anders	-9.23183
▁government	-9.23348
▁weg	-9.2348
▁weit	-9.235
▁Meine	-9.23802
▁Wissen	-9.23908
2	-9.23952
▁self	-9.24278
▁verändern	-9.24617
▁looks	-9.24635
▁video	-9.24659
▁beautiful	-9.24804
▁music	-9.2509
▁Ideen	-9.25174
▁line	-9.25184
▁turn	-9.25579
▁überall	-9.2561
▁group	-9.25837
▁bisschen	-9.2603
▁Projekt	-9.26106
▁Planeten	-9.26239
▁Schule	-9.26294
um	-9.26318
▁Informationen	-9.26358
▁Augen	-9.26416
▁Punkt	-9.26513
▁allen	-9.26633
▁Leuten	-9.26692
ta	-9.26706
▁Entwicklung	-9.26733
▁until	-9.26898
▁klar	-9.26934
▁gleich	-9.26964
▁dich	-9.27042
▁piece	-9.27188
▁erst	-9.27227
▁job	-9.27327
▁past	-9.27344
▁seinen	-9.27467
▁ihrem	-9.27855
▁D	-9.27876
▁Form	-9.28005
▁herum	-9.28239
▁model	-9.28265
▁months	-9.28517
iert	-9.28539
▁though	-9.28722
▁Antwort	-9.28797
▁kennen	-9.28951
▁musste	-9.28962
▁everybody	-9.2898
▁night	-9.29007
▁Bei	-9.2907
▁sagten	-9.29101
M	-9.29188
▁research	-9.29241
▁12	-9.2929
▁species	-9.29292
us	-9.29621
▁Design	-9.29803
The	-9.29865
▁60	-9.29971
▁heart	-9.29997
ö	-9.30298
▁stehen	-9.30378
▁nature	-9.30504
▁entwickelt	-9.30549
▁study	-9.30811
▁Milliarden	-9.30889
▁Mädchen	-9.31113
▁Für	-9.3112
▁Wissenschaft	-9.31202
▁bevor	-9.31281
▁Auto	-9.31307
▁reden	-9.31393
▁India	-9.31491
▁became	-9.31565
▁nennen	-9.31569
F	-9.31686
▁decided	-9.31772
▁gar	-9.31947
▁must	-9.31969
▁Fragen	-9.32075
▁places	-9.32118
▁America	-9.3217
▁completely	-9.322
▁darum	-9.32204
▁stop	-9.32231
E	-9.32298
▁Kopf	-9.324
▁education	-9.32405
▁stand	-9.3252
▁large	-9.32599
▁friends	-9.32734
▁word	-9.32796
▁euch	-9.32808
▁Männer	-9.32855
▁Afrika	-9.32882
▁80	-9.32981
▁States	-9.33017
▁since	-9.33277
▁hear	-9.33495
▁happening	-9.33638
▁learned	-9.33727
▁taking	-9.33906
▁animals	-9.33962
▁bereits	-9.34026
▁stories	-9.34064
▁erreichen	-9.34238
▁itself	-9.34539
ach	-9.34552
▁fragen	-9.34558
▁knew	-9.34698
▁Arten	-9.35011
▁woman	-9.35054
▁somebody	-9.35181
▁halten	-9.3519
up	-9.35273
▁Haus	-9.35558
▁share	-9.35852
▁Musik	-9.35875
zu	-9.35928
▁exactly	-9.35989
▁Or	-9.3599
▁Re	-9.36271
▁namens	-9.3631
▁erkennen	-9.36313
▁Indien	-9.3633
▁game	-9.3643
▁land	-9.36479
▁spielen	-9.36583
▁Familie	-9.36848
▁verschiedene	-9.36924
▁students	-9.36948
▁level	-9.37003
▁benutzen	-9.37007
▁besonders	-9.37114
▁Gefühl	-9.37255
▁themselves	-9.37277
▁hätten	-9.37587
▁sechs	-9.37604
▁sound	-9.37754
▁ourselves	-9.37768
▁front	-9.37796
▁25	-9.38013
▁Dieses	-9.38051
▁Gesellschaft	-9.38163
▁huge	-9.3823
▁company	-9.38426
▁society	-9.38428
▁name	-9.38434
▁Google	-9.38439
ha	-9.38604
ck	-9.38678
▁Minuten	-9.38696
▁works	-9.38751
ive	-9.39186
me	-9.3928
▁created	-9.3938
▁environment	-9.39404
▁anderes	-9.39445
▁against	-9.39527
▁state	-9.39582
▁steht	-9.39666
▁Unternehmen	-9.39676
▁sometimes	-9.39836
▁darin	-9.39995
▁Nach	-9.40207
▁Film	-9.40283
▁Macht	-9.40343
▁rather	-9.40429
▁schwer	-9.40549
▁Angst	-9.40608
▁minutes	-9.40633
▁along	-9.40675
▁turns	-9.40691
▁hours	-9.40712
▁won	-9.40725
▁Spiel	-9.41034
▁air	-9.4109
▁gerne	-9.41091
▁Bilder	-9.41189
▁least	-9.41274
▁Mein	-9.41588
▁wer	-9.41598
▁God	-9.41738
▁Oder	-9.41964
▁hören	-9.41994
▁2	-9.42106
▁Vater	-9.42127
is	-9.42175
▁braucht	-9.42241
▁Glück	-9.42371
▁oben	-9.42422
▁art	-9.4269
ul	-9.42728
▁mother	-9.42887
▁machte	-9.4301
▁Geschichten	-9.43044
▁figure	-9.43087
▁Ab	-9.4313
▁kinds	-9.43137
▁early	-9.43168
▁disease	-9.43415
▁particular	-9.43457
▁Gruppe	-9.43476
▁Selbst	-9.43502
▁worked	-9.43545
▁third	-9.43639
▁Am	-9.43712
▁Weil	-9.43719
lo	-9.43746
▁Patienten	-9.4378
gen	-9.43857
ar	-9.43888
▁questions	-9.44121
▁Sprache	-9.44361
▁Doch	-9.44399
▁Video	-9.44478
▁entwickeln	-9.44556
▁everyone	-9.44745
▁Vielleicht	-9.44757
▁entire	-9.44856
▁Then	-9.44883
▁close	-9.44905
▁happy	-9.44907
▁gesamte	-9.44908
▁cell	-9.44911
▁manchmal	-9.45084
▁instead	-9.45261
▁Kunst	-9.45372
▁Aus	-9.45391
▁Nicht	-9.4542
▁thousands	-9.45562
▁To	-9.45642
▁Chris	-9.45709
▁F	-9.45814
ce	-9.45833
▁Lass	-9.45858
▁bewegen	-9.46047
▁deal	-9.46051
",	-9.46495
▁Möglichkeit	-9.46604
at	-9.46633
▁American	-9.46744
▁soll	-9.46824
man	-9.47047
▁Hause	-9.47157
▁guys	-9.47214
▁menschliche	-9.47403
▁market	-9.4745
▁Stunden	-9.47589
▁house	-9.47664
▁irgendwie	-9.47768
▁machine	-9.48129
▁ändern	-9.48155
▁einzige	-9.48328
▁oil	-9.48334
▁outside	-9.48354
!"	-9.48369
▁erhalten	-9.48371
▁jedem	-9.48401
▁vorstellen	-9.48518
ab	-9.48585
▁einigen	-9.48956
▁difference	-9.49043
▁couldn	-9.49172
▁Roboter	-9.49396
▁Luft	-9.49413
▁unglaublich	-9.49506
ol	-9.49524
▁gave	-9.49605
▁Eltern	-9.49751
la	-9.50004
▁learning	-9.50014
▁Wort	-9.50065
▁natural	-9.50102
▁cool	-9.50187
▁beiden	-9.506
▁Krebs	-9.50717
▁Regierung	-9.51046
▁free	-9.51077
▁90	-9.51256
▁common	-9.51273
▁wollten	-9.51497
▁online	-9.51585
Oh	-9.51599
L	-9.51812
▁changed	-9.51828
▁systems	-9.51935
isch	-9.5214
▁unterschiedlich	-9.52217
▁Ziel	-9.52366
▁easy	-9.52597
ische	-9.52651
▁century	-9.52679
▁news	-9.52756
▁moving	-9.52788
▁Sachen	-9.52851
▁verschiedenen	-9.52971
▁At	-9.53171
▁taken	-9.53172
▁menschlichen	-9.53462
▁full	-9.5351
▁cost	-9.53514
▁Gott	-9.53524
▁verwenden	-9.53581
▁leave	-9.53627
▁R	-9.53643
▁normal	-9.53728
▁wasn	-9.53734
▁besten	-9.53742
▁nämlich	-9.53745
▁perhaps	-9.53745
▁wohl	-9.53754
▁rest	-9.53767
▁Gebäude	-9.53792
▁Oh	-9.53882
▁beginning	-9.53939
▁seven	-9.54112
▁black	-9.54144
▁H	-9.5417
lich	-9.5421
▁spend	-9.54211
▁middle	-9.54324
▁given	-9.54325
▁local	-9.54466
▁area	-9.54514
▁cities	-9.54519
▁L	-9.54689
▁yourself	-9.54725
▁aller	-9.54737
▁fish	-9.54874
▁fand	-9.55088
▁media	-9.55096
▁eher	-9.55124
▁size	-9.55147
▁terms	-9.55172
▁z	-9.55198
vi	-9.55333
▁alt	-9.55491
▁sage	-9.55493
▁walk	-9.55591
▁Lage	-9.55666
▁verändert	-9.55876
▁behind	-9.55877
▁innerhalb	-9.55886
▁wegen	-9.56478
▁oft	-9.56492
▁schauen	-9.56519
▁Sinn	-9.56718
ment	-9.56756
▁turned	-9.56807
▁zwar	-9.56875
▁isn	-9.57035
▁beginnen	-9.57135
▁culture	-9.57243
▁Kindern	-9.57293
H	-9.57316
▁dir	-9.5732
▁difficult	-9.57414
▁certain	-9.57415
▁population	-9.57459
ut	-9.57505
▁others	-9.57564
ischen	-9.57585
▁Universum	-9.57828
▁überhaupt	-9.57871
▁image	-9.58033
ate	-9.58088
▁finally	-9.58095
▁Wo	-9.58136
▁versucht	-9.58172
ting	-9.58179
mp	-9.58235
▁began	-9.58456
▁Länder	-9.58463
▁HIV	-9.58475
▁mag	-9.5856
▁getan	-9.58577
as	-9.587
▁eyes	-9.58808
▁nächste	-9.58824
ma	-9.58911
▁team	-9.58994
▁neu	-9.59015
▁wahr	-9.59045
▁gets	-9.59056
▁Freunde	-9.59083
▁groß	-9.59085
▁cannot	-9.5912
▁Anfang	-9.59285
▁Herausforderung	-9.59285
▁fest	-9.59395
ik	-9.59461
N	-9.59494
▁solche	-9.59523
▁weitere	-9.59594
chen	-9.59624
▁ocean	-9.59895
▁lots	-9.60028
▁longer	-9.60449
▁buy	-9.6058
ungen	-9.60725
ia	-9.60783
O	-9.60784
old	-9.60829
▁gleichen	-9.6095
▁Tiere	-9.61086
▁Z	-9.61196
▁view	-9.61291
year	-9.61298
▁seeing	-9.61446
▁führen	-9.6151
tra	-9.61555
▁70	-9.61568
▁Wissenschaftler	-9.61606
▁week	-9.61748
ling	-9.61817
▁treffen	-9.61921
▁Erfahrung	-9.62163
▁behavior	-9.62176
5	-9.62361
▁Stück	-9.624
▁powerful	-9.62542
▁Gesundheit	-9.62552
ant	-9.62738
▁wonderful	-9.62755
▁Stellen	-9.62815
▁Some	-9.62936
▁hands	-9.6304
▁pay	-9.63477
▁Not	-9.63492
▁value	-9.63504
ah	-9.63512
▁eight	-9.63633
1	-9.63645
▁companies	-9.63652
▁father	-9.63653
▁200	-9.63724
▁parents	-9.63814
▁O	-9.63908
▁whatever	-9.63969
▁realized	-9.64233
▁amount	-9.64243
▁mussten	-9.64469
▁paper	-9.64563
▁allem	-9.64591
▁test	-9.64601
▁simply	-9.6472
▁scale	-9.6478
▁16	-9.64813
▁wusste	-9.64939
▁Unterschied	-9.64981
▁1	-9.65181
▁P	-9.65216
▁death	-9.65228
▁völlig	-9.65367
▁tried	-9.65379
▁People	-9.65394
▁World	-9.65395
▁Liebe	-9.65414
▁economic	-9.65451
▁grow	-9.65507
▁short	-9.65568
Well	-9.65616
▁schön	-9.6588
ian	-9.6588
▁W	-9.65959
▁Publikum	-9.66033
▁tut	-9.66285
G	-9.66384
▁kamen	-9.6647
▁Dr	-9.66476
▁red	-9.66491
▁interested	-9.66505
▁direkt	-9.66762
▁friend	-9.6701
during	-9.67051
▁fühlen	-9.67166
▁quickly	-9.67355
▁letzte	-9.67375
▁Verhalten	-9.67424
▁damals	-9.67554
▁eigene	-9.67618
▁takes	-9.67628
and	-9.67695
▁poor	-9.67726
▁J	-9.67845
est	-9.67866
▁5	-9.67919
▁phone	-9.67926
x	-9.67978
▁hinter	-9.6803
▁needed	-9.68034
▁green	-9.68097
▁felt	-9.6822
▁blue	-9.6829
▁Grunde	-9.68409
▁gone	-9.68589
ir	-9.68691
▁growth	-9.6871
▁parts	-9.6885
▁Dingen	-9.68916
▁animal	-9.69256
▁los	-9.69261
▁speak	-9.69278
▁ability	-9.69358
▁gleiche	-9.69364
▁Wirtschaft	-9.69503
▁spent	-9.69563
▁4	-9.6957
▁bringt	-9.69586
▁field	-9.69613
ry	-9.69638
▁Zu	-9.69738
▁Denken	-9.6987
▁realize	-9.6988
▁complex	-9.70003
▁ground	-9.70051
▁Lehrer	-9.70142
You	-9.70288
▁worden	-9.70426
▁okay	-9.70468
▁Boden	-9.70478
▁feet	-9.70512
ton	-9.70531
▁program	-9.70534
▁17	-9.7059
▁needs	-9.70739
▁Thema	-9.70813
▁Zum	-9.71055
▁Möglichkeiten	-9.71256
▁Kultur	-9.71377
▁Vorstellung	-9.71404
▁cut	-9.71417
▁recht	-9.71493
bar	-9.71558
▁eat	-9.71559
▁jedoch	-9.71612
▁Wochen	-9.71634
▁falsch	-9.71762
▁La	-9.71982
▁Just	-9.72076
the	-9.72123
▁unten	-9.72149
▁Viele	-9.72182
▁frei	-9.72267
age	-9.72283
less	-9.72304
▁obwohl	-9.72324
▁reality	-9.72343
▁Al	-9.7243
▁Prozess	-9.72645
▁kurz	-9.72676
▁political	-9.72718
di	-9.72871
ber	-9.72892
▁lost	-9.72953
▁14	-9.73008
▁lässt	-9.73077
pi	-9.73092
▁fragte	-9.73152
▁economy	-9.73236
▁either	-9.73236
▁low	-9.73391
▁weeks	-9.73456
▁Markt	-9.73465
▁structure	-9.73482
▁allow	-9.73483
▁wären	-9.73699
▁Hilfe	-9.73705
▁Woche	-9.73752
▁challenge	-9.74022
▁Gedanken	-9.74308
▁genauso	-9.74425
▁besteht	-9.74449
What	-9.74454
▁write	-9.74575
▁step	-9.74765
▁Staaten	-9.74796
▁areas	-9.74859
▁sitting	-9.74894
br	-9.74955
▁bleiben	-9.75007
▁result	-9.75022
▁Labor	-9.75162
igen	-9.75217
▁Nein	-9.75231
im	-9.75241
▁attention	-9.75375
ism	-9.75401
▁schreiben	-9.75527
▁South	-9.75603
mal	-9.75649
▁lösen	-9.75686
iv	-9.75713
▁Nacht	-9.75808
▁On	-9.75879
▁humans	-9.76017
▁verbunden	-9.76083
▁größte	-9.76138
Was	-9.7614
▁shows	-9.76154
▁opportunity	-9.76324
▁key	-9.76376
▁Tages	-9.76411
▁sollen	-9.76479
▁Essen	-9.76493
▁morning	-9.76566
▁Über	-9.76687
▁zweite	-9.76843
▁surface	-9.76863
op	-9.76873
▁11	-9.76898
▁positive	-9.76916
men	-9.77051
▁zuvor	-9.77072
▁individual	-9.77074
▁dessen	-9.77229
▁audience	-9.77294
▁betrachten	-9.77337
▁Namen	-9.77523
▁bereit	-9.77583
lt	-9.77686
▁Right	-9.77807
▁interessant	-9.77839
▁ent	-9.77861
▁feeling	-9.78008
▁ones	-9.78123
ige	-9.78151
▁bitte	-9.78221
▁dark	-9.78302
▁based	-9.78349
W	-9.78355
▁Tage	-9.78411
am	-9.78489
▁Ländern	-9.78548
▁bewusst	-9.78613
▁patients	-9.78711
▁kaufen	-9.7878
▁born	-9.78837
▁issue	-9.79124
▁Zellen	-9.79323
▁Modell	-9.79371
▁forward	-9.79601
▁Monate	-9.79672
▁teilen	-9.79772
▁watch	-9.79774
▁Fähigkeit	-9.7982
▁N	-9.79899
os	-9.79912
▁Umwelt	-9.79939
▁bottom	-9.8001
▁incredible	-9.8001
▁English	-9.80021
▁niemand	-9.80054
▁Krieg	-9.80072
▁führt	-9.8011
▁meines	-9.80193
un	-9.80349
▁experiment	-9.80405
▁suchen	-9.80492
▁average	-9.80512
▁Bewegung	-9.80605
▁San	-9.80671
▁Jahrhundert	-9.80806
▁sea	-9.80823
▁London	-9.81016
▁brought	-9.81016
▁War	-9.81063
▁deine	-9.81077
▁known	-9.81153
▁anderer	-9.81415
ous	-9.81427
ine	-9.81463
▁Ihren	-9.81499
▁scheint	-9.81524
▁literally	-9.81526
▁knowledge	-9.81541
▁co	-9.81546
▁CO	-9.81563
▁sterben	-9.81586
▁Lösung	-9.8162
▁material	-9.81636
▁personal	-9.81664
▁Sehen	-9.81928
3	-9.82234
▁nice	-9.82237
▁fear	-9.82241
▁Mensch	-9.82397
▁met	-9.82409
▁film	-9.8243
▁genannt	-9.82545
▁technologies	-9.82548
▁developed	-9.82642
▁draußen	-9.82802
▁gefunden	-9.82802
▁soziale	-9.82923
▁force	-9.82947
▁stellt	-9.82953
▁map	-9.82986
▁physical	-9.83008
▁lesen	-9.83199
▁wouldn	-9.83214
▁Can	-9.83215
▁Tier	-9.83218
▁center	-9.83254
▁blood	-9.83292
he	-9.83334
per	-9.8336
▁growing	-9.83523
ren	-9.83566
▁plötzlich	-9.83577
▁support	-9.8359
▁sieben	-9.83598
▁Sch	-9.83691
ft	-9.83699
▁running	-9.83842
▁scientists	-9.83843
▁leicht	-9.8385
▁ca	-9.83904
▁V	-9.83914
▁Reihe	-9.84098
▁Our	-9.84146
▁Schritt	-9.84146
heit	-9.84149
ci	-9.84194
▁gebaut	-9.84195
▁Zahl	-9.8426
▁modern	-9.84277
▁alone	-9.84361
▁books	-9.84437
om	-9.8445
ies	-9.84458
▁risk	-9.84462
▁clear	-9.84569
▁erinnern	-9.8462
▁Heute	-9.84622
ien	-9.84686
▁numbers	-9.84808
her	-9.84905
▁Herz	-9.84996
▁See	-9.85013
▁non	-9.85093
▁access	-9.85144
▁Muster	-9.85182
▁Gemeinschaft	-9.85284
▁hold	-9.85299
▁gezeigt	-9.8541
▁Un	-9.85414
8	-9.85488
▁nahm	-9.85564
▁kid	-9.85593
ho	-9.85637
▁glücklich	-9.85637
▁schwierig	-9.85725
Das	-9.85743
▁starting	-9.8578
▁fly	-9.85888
▁changes	-9.85907
▁explain	-9.85968
▁500	-9.86034
▁girl	-9.86147
▁Mars	-9.86157
▁miles	-9.86163
▁images	-9.86271
▁schlecht	-9.86313
▁theory	-9.86474
id	-9.86493
▁deep	-9.8651
▁focus	-9.86529
▁Unsere	-9.86538
▁sehe	-9.86578
▁Yeah	-9.8663
▁hundreds	-9.86631
▁welches	-9.86716
▁seems	-9.8672
▁understanding	-9.86733
▁City	-9.86807
pa	-9.86871
keit	-9.86931
v	-9.86975
▁Wahrheit	-9.87008
▁beginnt	-9.8701
▁table	-9.87017
▁climate	-9.87038
▁Jeder	-9.87068
▁stark	-9.87145
▁stage	-9.87257
▁Natürlich	-9.87299
▁erschaffen	-9.873
▁erklären	-9.87316
▁begin	-9.87386
▁De	-9.87387
▁special	-9.87441
▁daraus	-9.87548
▁giving	-9.87582
▁National	-9.87632
▁Verbindung	-9.87666
▁funktionieren	-9.87675
▁fun	-9.87735
▁gelernt	-9.87816
▁wrote	-9.87816
co	-9.87895
4	-9.8797
▁Technologien	-9.88205
▁meet	-9.88219
sa	-9.88227
▁Schau	-9.8842
▁Wahl	-9.88587
▁relationship	-9.88613
▁movement	-9.88628
▁Haupt	-9.8863
▁schließlich	-9.88632
▁bist	-9.88649
▁geworden	-9.88649
▁anyone	-9.8865
▁Alle	-9.88651
▁fanden	-9.88707
▁tools	-9.8871
▁send	-9.88977
ard	-9.89007
▁produce	-9.89019
▁Einige	-9.8906
▁bekannt	-9.89075
▁Kraft	-9.89155
pe	-9.89163
▁Richtung	-9.89287
▁Of	-9.89304
▁passieren	-9.8946
ke	-9.89464
▁John	-9.89494
▁miteinander	-9.89512
▁save	-9.89584
▁Na	-9.89612
▁total	-9.89656
▁Medien	-9.89666
▁West	-9.89706
▁jemals	-9.89729
▁13	-9.89771
▁robot	-9.89788
▁playing	-9.89835
▁Autos	-9.89849
▁network	-9.89866
▁national	-9.89871
▁liebe	-9.89892
▁Europe	-9.89979
▁gewesen	-9.9001
▁telling	-9.90071
▁guess	-9.90282
▁la	-9.90283
▁white	-9.9032
▁aussehen	-9.9034
▁Städte	-9.90419
▁voice	-9.90571
▁möchten	-9.90594
▁development	-9.90658
▁solve	-9.90699
▁größten	-9.90775
hand	-9.9078
▁Afghanistan	-9.90839
▁discovered	-9.90885
▁Familien	-9.90934
▁mass	-9.91067
▁shape	-9.91272
▁Studie	-9.91308
▁add	-9.91378
▁recently	-9.91426
▁present	-9.91434
▁öffentliche	-9.9146
ier	-9.91516
▁hinein	-9.91711
▁beide	-9.91765
▁hast	-9.91796
▁richtige	-9.91855
▁gives	-9.91861
na	-9.91884
▁color	-9.91927
▁Tatsächlich	-9.91961
▁Größe	-9.92089
▁Tatsache	-9.92093
▁Ist	-9.92177
▁anfangen	-9.92256
▁impact	-9.92305
▁Rest	-9.92327
com	-9.92466
▁verloren	-9.92609
▁findet	-9.92674
▁deshalb	-9.92822
▁innovation	-9.92856
▁essen	-9.92997
▁nimmt	-9.93025
▁creating	-9.93095
▁Platz	-9.93119
▁develop	-9.93134
▁Reise	-9.93157
▁ähnlich	-9.93187
▁developing	-9.93248
▁Wer	-9.93253
▁evidence	-9.93381
▁Deshalb	-9.93381
▁Anzahl	-9.93389
▁Revolution	-9.93423
▁patient	-9.9355
▁Bildung	-9.93662
▁erreicht	-9.93702
▁chance	-9.93727
▁Foto	-9.93757
▁schrieb	-9.938
▁Umgebung	-9.93801
We	-9.93805
▁Chinese	-9.93814
▁rate	-9.93824
▁digital	-9.9387
▁Technik	-9.93891
▁thank	-9.93909
ized	-9.93915
▁nachdem	-9.93928
▁pick	-9.94009
au	-9.94179
▁Bedeutung	-9.94243
▁incredibly	-9.94243
▁industry	-9.94243
▁seem	-9.94534
gt	-9.94582
▁acht	-9.9463
land	-9.94677
▁Freund	-9.9488
▁zehn	-9.94907
▁Stimme	-9.95008
▁mache	-9.95065
▁teach	-9.95108
▁stay	-9.9518
▁beste	-9.95193
ner	-9.95241
▁Ihrer	-9.95263
▁Aufgabe	-9.95273
▁Team	-9.95285
▁Rolle	-9.95294
▁asking	-9.95308
▁Hälfte	-9.95404
7	-9.95457
▁situation	-9.9556
▁Situation	-9.95587
▁Studenten	-9.95622
▁tat	-9.95626
▁major	-9.95686
▁absolutely	-9.95726
▁stellte	-9.95729
▁Ge	-9.95739
▁type	-9.95757
mo	-9.95761
▁product	-9.96143
▁showed	-9.96165
▁Unter	-9.96334
▁eye	-9.96336
▁Meinung	-9.96475
▁egal	-9.9658
▁Alles	-9.96581
▁Bevölkerung	-9.96649
▁hundred	-9.96699
▁unseres	-9.96701
▁gegenüber	-9.96792
ted	-9.96916
ster	-9.96974
▁entfernt	-9.9705
▁talked	-9.97125
▁designed	-9.97218
▁Veränderung	-9.9733
▁pre	-9.97356
▁verwendet	-9.97529
▁raus	-9.97692
▁perfect	-9.97716
▁millions	-9.97784
▁involved	-9.97786
▁nachdenken	-9.97811
▁message	-9.97908
▁By	-9.97991
▁solar	-9.98075
▁danach	-9.9808
▁box	-9.98149
amp	-9.98164
▁act	-9.98258
▁sun	-9.98338
go	-9.98363
▁Japan	-9.98505
▁issues	-9.98565
▁kleines	-9.98629
▁kleiner	-9.98698
▁länger	-9.98737
▁weltweit	-9.98792
▁ice	-9.98875
▁Gewalt	-9.9889
▁arm	-9.98966
▁niemals	-9.98971
▁Europa	-9.98972
▁Realität	-9.98973
aus	-9.99062
▁law	-9.99124
▁choice	-9.99133
▁gegeben	-9.99204
▁street	-9.99227
▁fundamental	-9.99251
▁truth	-9.99274
▁tiny	-9.99279
▁schneller	-9.9928
ko	-9.99284
▁bigger	-9.99298
▁daher	-9.99329
▁allein	-9.9935
▁Fehler	-9.99377
ler	-9.99488
▁Teile	-9.99583
▁yes	-9.99602
▁vorher	-9.99649
▁absolut	-9.99664
▁soon	-9.99689
▁19	-9.99706
▁falls	-9.99719
▁komplett	-9.99728
▁hoffe	-9.99747
▁Mo	-9.99813
▁sit	-9.99826
ph	-9.99973
▁24	-10.0001
▁benutzt	-10.0003
▁similar	-10.0015
▁Web	-10.0016
▁available	-10.0019
▁Tat	-10.0036
▁ständig	-10.0039
▁pictures	-10.0052
▁period	-10.0054
▁ziehen	-10.006
▁fire	-10.0065
▁sofort	-10.0066
▁cars	-10.0071
▁bekam	-10.0073
▁lab	-10.0073
▁list	-10.0079
▁Sicherheit	-10.0089
▁fall	-10.0096
no	-10.0103
▁Eis	-10.0103
▁Wert	-10.0105
▁hinaus	-10.0109
▁baby	-10.0111
▁resources	-10.0112
▁mögen	-10.0113
▁Krankheit	-10.0132
fe	-10.0141
▁300	-10.0171
▁Erfolg	-10.0171
▁beyond	-10.0173
▁laufen	-10.018
▁bekommt	-10.0183
▁pull	-10.0196
▁Material	-10.0206
▁generation	-10.0208
▁writing	-10.0209
▁object	-10.0226
▁solution	-10.0228
▁wall	-10.0237
▁statt	-10.0246
▁Mitte	-10.0248
hi	-10.0252
▁tend	-10.0257
▁hit	-10.0259
▁guten	-10.0263
▁basic	-10.0267
▁Facebook	-10.0267
bei	-10.0268
▁First	-10.0269
▁lived	-10.027
är	-10.0271
ger	-10.0272
▁reasons	-10.0274
▁Entscheidungen	-10.0275
ated	-10.0291
▁interessiert	-10.0294
▁größer	-10.0305
▁langsam	-10.0311
▁setzen	-10.0313
▁provide	-10.0315
▁Straße	-10.0319
und	-10.0324
▁especially	-10.033
▁David	-10.0333
▁links	-10.0335
▁follow	-10.0336
▁private	-10.0342
▁Hoffnung	-10.0349
▁zeige	-10.0352
▁6	-10.0366
▁reach	-10.0373
▁Amerika	-10.0388
▁journey	-10.0393
▁stimmt	-10.0394
▁Forschung	-10.0405
▁bewegt	-10.0414
▁lose	-10.0419
▁alten	-10.0422
▁software	-10.0429
▁putting	-10.0431
6	-10.0442
▁drug	-10.0451
▁Preis	-10.0456
▁Vereinigte	-10.0457
▁Mitgefühl	-10.0457
▁Bau	-10.0461
▁changing	-10.0465
ring	-10.0467
▁Bereich	-10.0469
▁Zahlen	-10.0479
▁Generation	-10.048
▁einfache	-10.0484
▁Meter	-10.0486
▁c	-10.0487
da	-10.0488
▁groups	-10.0501
▁evolution	-10.0517
▁geschieht	-10.0521
▁several	-10.0521
▁herauszufinden	-10.0521
▁medical	-10.0522
▁Kosten	-10.0523
▁vision	-10.053
▁Straßen	-10.0532
ator	-10.0541
▁Fähigkeiten	-10.0547
▁Während	-10.0554
▁Beziehung	-10.0554
▁Nur	-10.0558
ize	-10.0564
ging	-10.0567
▁Pro	-10.0576
pp	-10.0577
▁effect	-10.0582
▁sonst	-10.0595
ty	-10.0595
▁geboren	-10.06
los	-10.0602
▁device	-10.0615
▁rules	-10.0615
Wir	-10.0618
▁role	-10.0618
▁computers	-10.062
▁carbon	-10.0628
▁likely	-10.0629
9	-10.0641
nen	-10.0645
▁Go	-10.0648
zen	-10.065
▁brachte	-10.0654
▁st	-10.0661
wohl	-10.0677
▁St	-10.068
▁Tod	-10.0685
▁bestimmt	-10.0694
▁jemanden	-10.0695
▁sex	-10.0706
▁Papier	-10.0716
▁gingen	-10.0723
▁Information	-10.0727
▁revolution	-10.073
▁listen	-10.0747
▁Every	-10.0749
bald	-10.0752
▁showing	-10.0759
▁einzelne	-10.0766
do	-10.0774
▁dead	-10.0777
▁Blick	-10.0782
▁nine	-10.0783
▁action	-10.0783
▁oh	-10.0784
▁girls	-10.079
▁speed	-10.079
▁moved	-10.0792
▁genommen	-10.0802
▁Mittel	-10.0807
▁Strom	-10.0816
▁approach	-10.0817
▁student	-10.0827
▁wind	-10.0829
bi	-10.0835
▁towards	-10.0852
▁Nachrichten	-10.0854
▁liegen	-10.0855
▁quality	-10.0856
▁bed	-10.0864
▁Experiment	-10.0865
▁Y	-10.0865
,000	-10.0866
we	-10.0866
▁massive	-10.0869
▁rein	-10.0872
▁Karte	-10.0879
ben	-10.0881
▁nennt	-10.0882
▁treat	-10.09
▁becomes	-10.0904
▁Struktur	-10.0909
V	-10.0916
▁drugs	-10.0921
▁games	-10.0923
▁Los	-10.0925
▁month	-10.0926
▁break	-10.0939
▁con	-10.0942
▁post	-10.0947
▁Demokratie	-10.0949
▁000	-10.0949
▁Gesicht	-10.0958
▁camera	-10.0959
kt	-10.0965
▁Zwei	-10.0969
▁Maschine	-10.0974
▁among	-10.0979
▁potential	-10.0982
son	-10.099
hr	-10.0995
äh	-10.0997
ein	-10.0997
▁drive	-10.0998
▁Pa	-10.0999
ken	-10.1
stand	-10.1002
▁d	-10.1008
▁Typ	-10.1011
▁p	-10.1015
▁With	-10.102
▁totally	-10.1023
▁meaning	-10.1034
▁21	-10.1036
▁wichtiger	-10.1039
▁success	-10.1042
▁Innovation	-10.1044
▁Firma	-10.1054
▁verlassen	-10.1054
▁Co	-10.1065
▁Ergebnis	-10.1083
▁nein	-10.1086
▁zuerst	-10.1086
▁certainly	-10.1093
▁international	-10.1101
▁continue	-10.1109
▁dream	-10.111
▁Maybe	-10.1121
▁worth	-10.1125
▁Aufmerksamkeit	-10.1153
▁sch	-10.1155
zeit	-10.1157
▁Even	-10.1162
▁geschrieben	-10.1164
▁Von	-10.1171
▁spread	-10.1173
▁Bücher	-10.118
▁general	-10.1182
▁University	-10.1187
▁favorite	-10.1187
▁anybody	-10.1188
▁Yes	-10.1189
▁begannen	-10.1196
▁particularly	-10.1197
▁Medizin	-10.12
▁Evolution	-10.1216
▁Programm	-10.1221
▁gleichzeitig	-10.1222
▁door	-10.1225
▁bestimmte	-10.1225
▁anstatt	-10.1227
▁junge	-10.1227
▁wichtige	-10.1228
▁largest	-10.1231
▁exciting	-10.1256
▁After	-10.1256
▁further	-10.1256
▁sub	-10.1264
▁sounds	-10.1265
▁Oberfläche	-10.1268
▁skin	-10.1269
rin	-10.1273
▁Entscheidung	-10.1283
▁Alter	-10.1289
▁medicine	-10.1291
▁Auch	-10.1294
by	-10.1297
.000	-10.1301
▁Sonne	-10.1309
▁Seiten	-10.1323
No	-10.1324
▁results	-10.1324
▁onto	-10.1325
▁Le	-10.133
▁mehrere	-10.1336
▁dachten	-10.1341
▁sitzen	-10.1343
Die	-10.1348
▁office	-10.135
▁notice	-10.1352
▁Job	-10.1356
▁finding	-10.1356
▁blind	-10.1359
▁Zeug	-10.1366
▁Wind	-10.1387
▁East	-10.1394
▁scientific	-10.1396
▁gern	-10.14
▁vorbei	-10.1404
▁großer	-10.1406
▁thousand	-10.1408
cht	-10.1412
▁mine	-10.1424
▁measure	-10.1425
▁North	-10.1429
▁compassion	-10.1432
▁happiness	-10.1434
line	-10.1436
▁machten	-10.144
▁strong	-10.1444
▁class	-10.1444
▁Orte	-10.1445
▁Ding	-10.1447
▁gemeinsam	-10.1449
ally	-10.1451
▁lieben	-10.1454
▁walking	-10.1456
▁Most	-10.1458
▁screen	-10.1459
▁hour	-10.1463
zi	-10.1466
▁context	-10.1466
▁gesprochen	-10.1466
▁poverty	-10.1466
▁sent	-10.1467
▁Produkt	-10.147
▁super	-10.1471
▁fahren	-10.1471
▁security	-10.1472
▁Gruppen	-10.1483
▁lead	-10.1486
ug	-10.1519
▁Ka	-10.1532
▁bessere	-10.1547
▁pattern	-10.1552
ze	-10.1558
rs	-10.157
▁sozialen	-10.1573
▁everywhere	-10.1573
▁extremely	-10.1577
▁extrem	-10.1581
▁wachsen	-10.1582
▁connected	-10.1584
▁Kontrolle	-10.1584
▁gas	-10.1588
▁boy	-10.1589
▁wish	-10.1591
▁8	-10.1607
▁biggest	-10.1609
▁Richard	-10.1609
▁Sohn	-10.161
▁Uhr	-10.1617
▁source	-10.1619
▁movie	-10.1623
▁Ozean	-10.1648
▁supposed	-10.165
▁Gene	-10.1656
▁US	-10.1659
▁projects	-10.1662
▁tragen	-10.1677
▁Einfluss	-10.1682
▁Menschheit	-10.1682
▁beobachten	-10.1685
▁fliegen	-10.1687
▁fight	-10.1701
kommen	-10.1702
▁voll	-10.1703
▁Schulen	-10.1715
▁außer	-10.1716
▁memory	-10.1717
ow	-10.1719
▁star	-10.1739
▁Blut	-10.1753
▁crazy	-10.1754
▁Ent	-10.1759
▁expect	-10.1765
▁schools	-10.1768
▁plan	-10.1776
▁Iran	-10.1777
▁Versuch	-10.178
▁higher	-10.1787
▁eventually	-10.179
▁TV	-10.1791
U	-10.1792
▁suddenly	-10.1793
▁Konzept	-10.1802
▁travel	-10.1803
ierte	-10.1804
▁bestimmten	-10.1811
▁klein	-10.1815
▁Genau	-10.1827
▁nobody	-10.1828
▁erlaubt	-10.1828
rt	-10.1835
▁ansehen	-10.1848
▁Vortrag	-10.1852
▁etc	-10.1856
▁Universität	-10.1862
▁trees	-10.187
ca	-10.1879
▁offensichtlich	-10.1883
▁trust	-10.1891
▁individuals	-10.1893
▁Software	-10.1899
▁bald	-10.1902
▁vergessen	-10.1903
▁obviously	-10.1904
▁9	-10.1908
▁Pflanzen	-10.191
▁safe	-10.192
▁Fisch	-10.1926
▁Regeln	-10.193
ful	-10.1937
▁creative	-10.1937
▁leaders	-10.1946
▁response	-10.1956
form	-10.1961
▁großartige	-10.1965
▁finde	-10.1977
▁2000	-10.1978
▁faster	-10.1978
▁sahen	-10.1988
▁examples	-10.1989
▁urban	-10.2012
▁bunch	-10.2012
▁worse	-10.2012
▁neues	-10.2016
▁versuchte	-10.2019
▁rich	-10.2024
art	-10.2025
▁ready	-10.2026
▁materials	-10.2031
bau	-10.2034
▁b	-10.2039
▁violence	-10.2051
▁visual	-10.2054
▁activity	-10.2055
▁fine	-10.2062
▁passierte	-10.2063
▁smart	-10.2069
▁watching	-10.207
▁sleep	-10.2073
▁sprach	-10.2081
gehen	-10.2081
va	-10.2086
▁democracy	-10.2088
▁bleibt	-10.2094
ance	-10.2096
▁teacher	-10.2097
▁Monat	-10.2109
ating	-10.2112
▁Sinne	-10.2119
▁Gebiet	-10.2144
▁road	-10.2144
che	-10.2154
▁Who	-10.2156
▁Armut	-10.2163
▁shown	-10.2165
▁nahe	-10.217
▁protect	-10.2174
▁Sa	-10.2175
▁teachers	-10.218
▁denkt	-10.2194
▁named	-10.2197
▁Park	-10.2197
▁Beispiele	-10.22
▁perspective	-10.2201
▁communities	-10.2201
▁Gen	-10.2206
▁hohe	-10.2209
ga	-10.2211
▁led	-10.2219
▁Studien	-10.2221
▁7	-10.2225
▁hospital	-10.2226
ub	-10.2226
tion	-10.2233
ende	-10.2234
▁bilden	-10.2239
▁essentially	-10.2241
▁haven	-10.2263
▁village	-10.2264
▁arbeitete	-10.2269
▁sell	-10.2271
▁late	-10.2275
▁erzählt	-10.2282
▁gearbeitet	-10.2283
▁slow	-10.2284
▁plants	-10.2288
▁cause	-10.2296
▁zumindest	-10.2316
▁exist	-10.2316
▁conditions	-10.2317
ot	-10.2318
▁position	-10.232
▁objects	-10.2327
▁England	-10.2354
▁Vergangenheit	-10.2354
▁choose	-10.2354
▁Firmen	-10.2357
▁square	-10.2358
▁starts	-10.236
▁content	-10.2361
▁killed	-10.2363
selben	-10.2375
▁recognize	-10.2378
out	-10.2385
▁Nachricht	-10.2387
▁plant	-10.2391
▁verbessern	-10.2393
▁Morgen	-10.2393
▁Museum	-10.2395
Ja	-10.2429
▁complicated	-10.2432
▁grew	-10.2432
▁nuclear	-10.2435
ish	-10.2449
▁code	-10.2452
▁site	-10.246
des	-10.2461
▁arbeitet	-10.2469
▁aussieht	-10.2471
▁Spaß	-10.2471
▁sodass	-10.2471
▁Wand	-10.2475
▁Sex	-10.2478
▁Krankheiten	-10.2487
▁sp	-10.2488
▁Arm	-10.2498
ismus	-10.251
▁including	-10.251
▁erzeugen	-10.251
▁above	-10.251
▁electricity	-10.2511
▁rise	-10.2512
▁Daher	-10.2513
▁Künstler	-10.2514
▁record	-10.2517
▁jobs	-10.2518
▁minute	-10.2518
gu	-10.2531
▁lower	-10.2541
▁mental	-10.2541
liche	-10.2543
▁Ergebnisse	-10.2548
▁Personen	-10.2548
▁impossible	-10.255
▁somewhere	-10.255
▁extraordinary	-10.255
▁Gut	-10.2556
▁Don	-10.2558
▁consider	-10.2562
▁hot	-10.2563
▁Worte	-10.2566
▁moral	-10.2575
▁Look	-10.2577
▁tree	-10.2582
▁police	-10.2589
▁Sicht	-10.2595
schen	-10.2598
▁win	-10.2598
time	-10.2598
ja	-10.2599
▁allowed	-10.2605
▁ended	-10.2606
▁meant	-10.2617
▁near	-10.2623
▁progress	-10.2626
▁verlieren	-10.263
system	-10.2636
▁goal	-10.2641
▁anschauen	-10.2643
▁Grenzen	-10.2654
▁35	-10.2658
▁Monaten	-10.2664
▁ex	-10.2665
▁traf	-10.2666
▁extra	-10.2668
▁plastic	-10.2669
ick	-10.2674
▁möglichen	-10.2675
▁search	-10.2687
▁solchen	-10.2692
▁decision	-10.2703
▁m	-10.2703
▁board	-10.2708
▁Kamera	-10.2708
▁Schüler	-10.2709
▁Bakterien	-10.271
▁deren	-10.2714
▁fertig	-10.2723
▁traditional	-10.2745
end	-10.2745
▁wussten	-10.2748
▁unmöglich	-10.2749
▁cold	-10.2751
▁models	-10.2752
ex	-10.2759
▁Orten	-10.276
▁entscheiden	-10.2774
▁African	-10.2777
▁architecture	-10.2789
▁Zugang	-10.2789
▁somehow	-10.2791
▁specific	-10.2794
▁k	-10.2802
▁400	-10.2804
▁einzelnen	-10.2804
ka	-10.2809
▁larger	-10.2819
▁manche	-10.2821
▁Washington	-10.283
▁nachzudenken	-10.283
leben	-10.2836
▁Bo	-10.2836
ich	-10.2842
▁wait	-10.2852
▁Druck	-10.2855
▁products	-10.2855
▁current	-10.2865
▁kannst	-10.2866
▁doctor	-10.2867
▁tool	-10.2868
▁legal	-10.2869
▁anywhere	-10.287
▁college	-10.287
▁truly	-10.287
▁gewinnen	-10.287
▁retten	-10.2871
ierung	-10.2876
▁Where	-10.2886
▁older	-10.2906
▁Bill	-10.2911
▁Today	-10.2912
▁Po	-10.2921
Wie	-10.2928
▁eben	-10.2931
▁voller	-10.2933
▁wonder	-10.2934
▁Politik	-10.2934
▁gebracht	-10.2942
▁kill	-10.2943
▁main	-10.2949
▁conversation	-10.295
▁Stelle	-10.2951
▁Flugzeug	-10.2951
▁Büro	-10.2952
▁floor	-10.2952
▁alive	-10.2953
▁usually	-10.2954
▁geschehen	-10.2954
▁Können	-10.2958
gel	-10.2964
cy	-10.2978
▁riesige	-10.2986
▁Gerät	-10.2987
▁Englisch	-10.2993
▁indeed	-10.2994
▁excited	-10.2994
▁town	-10.3008
ever	-10.301
▁AIDS	-10.301
▁Mathematik	-10.3018
▁draw	-10.3019
▁produzieren	-10.3024
▁successful	-10.303
▁Meer	-10.3034
▁yeah	-10.3034
les	-10.3035
▁Those	-10.3035
▁forms	-10.3046
▁dein	-10.305
▁bar	-10.3055
pf	-10.3055
mi	-10.3058
▁increase	-10.3061
ak	-10.3061
▁song	-10.3071
▁nenne	-10.3075
▁price	-10.3076
▁crisis	-10.3078
▁befinden	-10.3078
▁reading	-10.3079
du	-10.3091
▁region	-10.3097
ert	-10.3101
▁pain	-10.3101
▁interest	-10.3109
tel	-10.3109
▁critical	-10.3113
▁buildings	-10.3114
▁taught	-10.3118
▁irgendwo	-10.3118
▁studies	-10.3118
▁trotzdem	-10.3119
▁Baby	-10.3121
gi	-10.3126
▁dritte	-10.3128
ng	-10.3128
▁Netzwerk	-10.3131
▁gestellt	-10.3141
▁alte	-10.3144
▁dis	-10.3152
▁weight	-10.3154
▁näher	-10.3155
▁Million	-10.3157
▁neben	-10.3159
▁Wahrscheinlich	-10.3159
▁freedom	-10.316
▁Wirklichkeit	-10.316
▁stars	-10.3184
fi	-10.3186
▁throw	-10.3187
▁standing	-10.3197
▁bacteria	-10.3197
▁feed	-10.3198
▁Ebene	-10.3201
▁versuche	-10.3201
▁Twitter	-10.3201
▁wife	-10.3202
▁service	-10.321
00	-10.3212
▁sky	-10.3214
ni	-10.3215
▁version	-10.3226
▁Sekunden	-10.3231
▁Objekt	-10.3237
kept	-10.3242
▁heutzutage	-10.3244
▁Freiheit	-10.3244
▁upon	-10.3244
▁Tisch	-10.3245
▁Einstein	-10.3245
▁subject	-10.3246
▁written	-10.3246
▁rule	-10.3248
▁range	-10.3248
▁brains	-10.3249
▁aren	-10.3252
▁gekommen	-10.3271
▁waste	-10.3273
▁peace	-10.3278
▁Behandlung	-10.3284
▁Linie	-10.3286
▁Hände	-10.3286
▁untersuchen	-10.3291
▁performance	-10.3291
sp	-10.3292
▁Schul	-10.3305
▁page	-10.3306
ff	-10.3308
▁rund	-10.3313
▁wild	-10.3316
▁45	-10.3325
▁Chance	-10.3329
▁biology	-10.3329
▁Landes	-10.3338
▁Tagen	-10.3345
sche	-10.3346
▁Spezies	-10.3347
▁früher	-10.335
▁families	-10.3372
▁series	-10.3372
▁School	-10.3374
▁wann	-10.3375
▁runter	-10.3375
▁Wachstum	-10.3377
▁Theorie	-10.338
▁mo	-10.3385
▁lines	-10.3392
bel	-10.3404
auf	-10.3406
▁serious	-10.3409
▁actual	-10.3409
▁Fuß	-10.3414
▁Ha	-10.3414
▁trade	-10.3415
▁gefragt	-10.3416
▁mobile	-10.3416
▁Kampf	-10.3416
▁hilft	-10.3417
▁aufgrund	-10.3424
▁150	-10.3424
▁führte	-10.3427
▁Are	-10.3432
▁Bank	-10.3433
▁globalen	-10.3439
▁Eines	-10.3439
▁skills	-10.3442
▁Her	-10.3443
▁touch	-10.3445
▁sign	-10.3452
▁Bezug	-10.3458
▁production	-10.3459
▁sat	-10.3461
▁train	-10.3464
▁sorts	-10.3464
▁treatment	-10.3465
▁erfahren	-10.3465
▁Amerikaner	-10.3468
▁hab	-10.347
▁healthy	-10.3475
▁explore	-10.3486
▁entschieden	-10.3488
▁practice	-10.3493
▁robots	-10.35
▁earlier	-10.3501
▁kaum	-10.3502
▁Nummer	-10.3503
▁path	-10.3505
▁Ressourcen	-10.3507
▁environmental	-10.3509
lichen	-10.3509
▁decide	-10.3529
sh	-10.3532
▁lebt	-10.3536
▁interessante	-10.3543
▁military	-10.3544
▁physics	-10.3546
▁becoming	-10.3547
▁Kollegen	-10.3554
▁hält	-10.3573
▁Recht	-10.3583
▁Dorf	-10.3583
▁policy	-10.3588
▁geschaffen	-10.3588
▁allows	-10.3591
▁Architektur	-10.3591
▁Bio	-10.3593
▁pieces	-10.3597
▁emotional	-10.3598
▁hell	-10.3603
▁größere	-10.3606
▁greater	-10.3648
▁cases	-10.3661
▁erzählte	-10.367
▁Kern	-10.3673
▁tief	-10.3674
▁bodies	-10.3676
▁Tür	-10.3676
ität	-10.3679
▁concept	-10.3683
▁Auswirkungen	-10.3687
▁Mr	-10.3687
▁großartig	-10.3694
▁patterns	-10.3704
▁raise	-10.3705
▁Nahrung	-10.3714
like	-10.3717
▁store	-10.3718
▁Harvard	-10.372
▁September	-10.372
▁Formen	-10.3721
▁neurons	-10.3722
teil	-10.3723
▁neun	-10.3725
rzte	-10.3731
▁arbeite	-10.3735
▁mom	-10.3739
▁jungen	-10.3745
▁Times	-10.3749
igkeit	-10.3751
▁genes	-10.3752
▁hörte	-10.3752
äu	-10.3757
▁handelt	-10.3759
mon	-10.3761
▁Risiko	-10.3764
▁Artikel	-10.3764
▁entdecken	-10.3764
▁dangerous	-10.3765
▁verbinden	-10.3765
▁Damit	-10.3766
▁Arzt	-10.3769
▁Telefon	-10.378
▁läuft	-10.3782
▁training	-10.3788
▁career	-10.3793
log	-10.3795
▁math	-10.3795
▁folgen	-10.3797
▁großes	-10.3804
▁anymore	-10.381
▁Prinzip	-10.3812
▁Which	-10.3812
▁organization	-10.382
▁shot	-10.3831
Hey	-10.3834
▁zeigte	-10.3834
▁Beginn	-10.3837
▁himself	-10.3854
▁ehrlich	-10.3854
▁Regierungen	-10.387
▁Geist	-10.3882
▁please	-10.3884
rum	-10.3885
one	-10.3891
▁except	-10.3898
▁doctors	-10.3902
▁Bewusstsein	-10.3914
▁address	-10.3934
ag	-10.3938
▁famous	-10.3939
▁g	-10.3941
▁MIT	-10.3944
▁expensive	-10.3944
▁intelligence	-10.3944
▁schützen	-10.3944
▁press	-10.3945
▁normalerweise	-10.3945
▁Partner	-10.3946
▁ermöglicht	-10.3956
▁Netz	-10.3958
ary	-10.396
▁capital	-10.3965
▁Durch	-10.3986
▁geschah	-10.399
▁herausfinden	-10.399
▁übrigens	-10.399
▁sand	-10.3992
ding	-10.3996
▁unglaubliche	-10.3997
▁Methode	-10.3998
▁sammeln	-10.4
▁warten	-10.4001
▁verstanden	-10.4007
▁betrachtet	-10.4011
▁forest	-10.4019
▁zweiten	-10.4024
▁Ko	-10.4029
▁Haut	-10.4032
▁Paul	-10.4034
▁unterstützen	-10.4035
▁ebenso	-10.4036
▁Interesse	-10.4038
▁globale	-10.4042
▁clearly	-10.4044
▁rechts	-10.4044
▁listening	-10.4055
▁smaller	-10.4075
▁final	-10.4076
▁messen	-10.4076
▁fallen	-10.4078
▁Islam	-10.408
▁Darwin	-10.4081
▁temperature	-10.4081
▁Another	-10.4081
▁Like	-10.4082
▁Krankenhaus	-10.4085
schaft	-10.4088
▁Gründe	-10.4091
▁Beziehungen	-10.4098
▁secret	-10.4099
innen	-10.4108
▁Wesen	-10.411
▁jene	-10.4122
▁flow	-10.4127
▁Ordnung	-10.4127
▁familiar	-10.4127
▁Vergleich	-10.4132
fall	-10.415
▁direction	-10.4151
▁zero	-10.4153
▁Farbe	-10.4155
▁willing	-10.4168
▁race	-10.4174
▁außerhalb	-10.4174
▁throughout	-10.4178
▁invented	-10.4178
▁befindet	-10.4178
▁toll	-10.4189
erweise	-10.419
▁website	-10.4193
▁fuel	-10.4194
▁Bis	-10.4195
▁foot	-10.42
▁survive	-10.4205
▁r	-10.4206
▁Israel	-10.4207
▁erstaunlich	-10.4212
▁fing	-10.4214
▁produziert	-10.422
▁Feuer	-10.422
▁dog	-10.4221
▁Name	-10.4227
▁diejenigen	-10.423
▁Abend	-10.4231
led	-10.4234
▁Me	-10.4237
▁Zeitpunkt	-10.4239
▁legs	-10.4239
▁Himmel	-10.4248
▁Fro	-10.4257
▁beauty	-10.4267
▁Charles	-10.4267
▁pressure	-10.4267
▁Reaktion	-10.427
▁Organisation	-10.4274
▁lag	-10.4281
ged	-10.4292
▁Liste	-10.4304
▁getroffen	-10.4314
▁driving	-10.4318
▁ahead	-10.432
▁loved	-10.4322
spiel	-10.4324
▁corner	-10.4325
▁bio	-10.4329
▁danke	-10.4334
▁medizinische	-10.4338
▁taten	-10.4339
ical	-10.4341
▁points	-10.4342
▁strange	-10.4344
▁wants	-10.4355
▁entweder	-10.4361
▁instance	-10.4361
▁machines	-10.4365
▁levels	-10.4369
▁Grad	-10.4369
▁humanity	-10.4372
▁Wege	-10.4384
▁welcher	-10.4385
▁son	-10.4385
▁einander	-10.4387
In	-10.4392
▁Fa	-10.4404
▁fantastic	-10.4408
▁Jungen	-10.4408
▁li	-10.4409
▁died	-10.4414
▁Auge	-10.4415
ba	-10.4416
▁spielt	-10.4416
isten	-10.442
▁Americans	-10.4421
bild	-10.4423
▁web	-10.4428
▁Plan	-10.4449
vor	-10.4454
▁dadurch	-10.4457
▁Bürger	-10.4459
▁photograph	-10.4469
▁walked	-10.4479
▁Projekte	-10.4482
▁Punkte	-10.4489
▁Gehirns	-10.449
if	-10.4493
▁California	-10.4504
▁Manchmal	-10.4504
▁leisten	-10.4504
▁Anderson	-10.4504
▁ran	-10.4515
▁photo	-10.4531
ß	-10.4546
▁Verständnis	-10.4552
▁seconds	-10.4552
▁immediately	-10.4553
▁Schlüssel	-10.4553
ran	-10.4556
▁Manche	-10.4566
tz	-10.4567
▁entdeckt	-10.4568
▁e	-10.4571
▁clean	-10.4576
Be	-10.4579
Nein	-10.4582
▁erfolgreich	-10.459
▁values	-10.459
▁spricht	-10.46
▁verursacht	-10.46
▁Leidenschaft	-10.4601
▁Neu	-10.4612
▁waiting	-10.4617
▁forth	-10.4625
▁institutions	-10.4628
▁extreme	-10.463
▁Systeme	-10.4633
▁fix	-10.4634
akt	-10.4634
▁enjoy	-10.4638
▁obvious	-10.4644
▁useful	-10.4649
▁Ta	-10.4651
▁herstellen	-10.4652
izing	-10.4653
▁forget	-10.4657
▁function	-10.4658
▁erleben	-10.4663
▁Werte	-10.4666
▁choices	-10.4671
io	-10.4674
▁Mu	-10.4675
▁costs	-10.4679
▁purpose	-10.4681
▁schlechte	-10.4686
▁trouble	-10.4697
▁therefore	-10.4698
▁abge	-10.4698
▁Gesetz	-10.4703
▁decisions	-10.4704
▁Nigeria	-10.4704
▁f	-10.4718
uch	-10.4719
▁km	-10.472
ization	-10.4729
▁fühlte	-10.4731
▁Designer	-10.4741
▁Ok	-10.4742
▁erfunden	-10.4747
▁rain	-10.4747
▁Unser	-10.4748
▁summer	-10.4751
▁Bühne	-10.4754
▁slide	-10.4757
▁keiner	-10.4766
▁Ton	-10.4777
bo	-10.4785
▁event	-10.479
▁Second	-10.4793
▁Industrie	-10.4794
▁außergewöhnlich	-10.4796
▁Francisco	-10.4796
▁Two	-10.4796
▁connect	-10.4801
▁greatest	-10.4802
▁Stunde	-10.4802
▁negative	-10.4805
▁term	-10.481
▁Je	-10.4817
▁teaching	-10.482
▁Medikamente	-10.4821
▁anti	-10.4822
▁einzigen	-10.4823
▁Maschinen	-10.4826
Warum	-10.4828
ap	-10.4836
▁Fortschritt	-10.4838
▁ideal	-10.4839
▁original	-10.4842
▁hundert	-10.4844
▁various	-10.4845
▁remarkable	-10.4845
ists	-10.4848
▁schicken	-10.4859
▁solutions	-10.486
▁Geschäft	-10.487
▁o	-10.4874
▁na	-10.4876
▁ball	-10.4877
▁Junge	-10.4878
▁decade	-10.4879
▁Wald	-10.4881
▁conflict	-10.4884
▁quick	-10.489
▁tolle	-10.4893
▁Chicago	-10.4895
▁Imagine	-10.4895
▁although	-10.4895
▁possibly	-10.4895
▁terrible	-10.4895
▁Ahnung	-10.4895
▁dasselbe	-10.4895
▁Nähe	-10.4895
▁societies	-10.4895
▁erzeugt	-10.4895
▁hervor	-10.4899
▁Religion	-10.4903
▁Big	-10.4911
▁genetic	-10.4918
▁Arbeits	-10.4923
▁wenige	-10.4928
▁Herzen	-10.4929
▁shift	-10.4929
zug	-10.4931
▁connection	-10.4931
▁Finger	-10.4934
▁High	-10.4944
▁beeinflusst	-10.4945
▁count	-10.4946
▁erwarten	-10.4951
▁75	-10.4952
▁Einer	-10.4954
▁Test	-10.4964
▁push	-10.4972
▁höher	-10.4976
▁religion	-10.4979
▁improve	-10.498
▁Fotos	-10.4985
▁verrückt	-10.4988
▁Li	-10.4991
▁services	-10.4992
▁join	-10.4995
▁genutzt	-10.4995
▁verkaufen	-10.4995
▁worst	-10.4995
▁George	-10.4999
▁Westen	-10.5001
▁meeting	-10.5006
▁income	-10.5007
▁Sommer	-10.501
plan	-10.5014
▁Veränderungen	-10.5019
▁fit	-10.502
▁Erstens	-10.5021
rat	-10.5021
▁cover	-10.5026
ud	-10.5027
▁stick	-10.5031
▁park	-10.5044
▁babies	-10.5046
▁communicate	-10.5046
▁gutes	-10.5046
▁infrastructure	-10.5047
▁Think	-10.5049
▁politics	-10.505
▁Erfahrungen	-10.5051
▁effective	-10.5052
▁frühen	-10.5055
setzen	-10.5057
▁beings	-10.5058
▁apart	-10.506
▁Ho	-10.506
▁ihres	-10.5068
▁Jahrhunderts	-10.5073
▁lernte	-10.5075
▁Gesundheits	-10.5077
▁agree	-10.508
▁unique	-10.5091
▁Ma	-10.5092
▁shared	-10.5092
▁Verantwortung	-10.5093
Es	-10.5096
▁passion	-10.5099
▁apply	-10.5101
▁atmosphere	-10.5102
▁Leistung	-10.5105
▁brand	-10.5106
▁complete	-10.5127
isiert	-10.5129
▁dance	-10.5138
▁pass	-10.5142
▁Polizei	-10.5149
▁wählen	-10.5152
▁verbringen	-10.5155
▁engineering	-10.5166
que	-10.5171
▁check	-10.5183
zahl	-10.5184
dimensional	-10.5185
▁wirtschaftliche	-10.5192
▁standard	-10.5197
▁gedacht	-10.5199
▁Schönheit	-10.5199
▁behandeln	-10.5199
▁2010	-10.52
▁rock	-10.5211
▁gebe	-10.5214
▁hole	-10.5215
▁attack	-10.5215
▁heutigen	-10.5217
▁following	-10.5222
▁früh	-10.5226
▁Haben	-10.5228
▁fällt	-10.523
fin	-10.5235
▁offen	-10.5236
▁Lösungen	-10.5236
▁heat	-10.5245
▁financial	-10.5245
▁Gefängnis	-10.5246
▁amerikanischen	-10.5247
▁erinnere	-10.525
▁Mond	-10.5256
▁Life	-10.5259
▁Steve	-10.5259
side	-10.526
qui	-10.5266
▁Traum	-10.5276
Why	-10.5287
cken	-10.5288
▁female	-10.5291
nder	-10.5298
▁eure	-10.5298
▁hart	-10.5301
enden	-10.5301
▁ebenfalls	-10.5302
▁fossil	-10.5302
▁television	-10.5302
nd	-10.5305
▁konzentrieren	-10.5306
▁echte	-10.5309
▁Mir	-10.5315
▁Eigenschaften	-10.5319
▁bisher	-10.5324
▁Worten	-10.5326
▁Teilen	-10.5331
ki	-10.5336
▁politische	-10.5342
ative	-10.5343
▁speech	-10.5354
▁James	-10.5359
tic	-10.536
▁Freude	-10.5365
raum	-10.5366
▁knows	-10.5366
▁überleben	-10.5369
▁hair	-10.5375
▁Lernen	-10.5379
▁Many	-10.5384
▁affect	-10.5386
▁absolute	-10.5387
▁fair	-10.5396
ssystem	-10.5399
▁recent	-10.5403
▁trifft	-10.5407
▁capacity	-10.5409
▁anyway	-10.541
▁spreche	-10.5412
schaftliche	-10.5419
▁gehe	-10.5434
▁Pakistan	-10.5443
▁halbe	-10.5443
so	-10.5447
▁guter	-10.5459
▁Biologie	-10.5459
▁Angeles	-10.5461
▁Western	-10.5465
▁existiert	-10.547
▁Indian	-10.5472
▁predict	-10.5486
▁return	-10.5488
▁governments	-10.5493
ualität	-10.55
▁biological	-10.5507
▁respect	-10.551
▁Kontakt	-10.5512
▁gegangen	-10.5512
▁popular	-10.5512
▁2008	-10.5513
▁published	-10.5518
▁effects	-10.5518
▁helped	-10.5521
dy	-10.553
▁mostly	-10.5547
▁po	-10.5552
arbeit	-10.5562
▁text	-10.5566
J	-10.5567
▁Adam	-10.5569
▁virus	-10.5577
▁fangen	-10.5578
▁gewisse	-10.5591
▁Städten	-10.5594
ue	-10.5601
▁Sp	-10.5605
ziehen	-10.5606
▁enormous	-10.5614
▁nahmen	-10.5619
▁begonnen	-10.5619
▁supply	-10.5619
▁Street	-10.5619
ckt	-10.5627
tor	-10.5629
▁minds	-10.5631
▁rid	-10.5637
▁nation	-10.5638
▁Center	-10.5641
▁Kommunikation	-10.5645
▁reduce	-10.5658
ray	-10.5664
▁Baum	-10.5668
▁komme	-10.5672
▁NASA	-10.5673
▁conference	-10.5673
▁stopped	-10.5673
▁Zustand	-10.5674
ör	-10.5678
▁aid	-10.5678
▁magic	-10.5679
▁Bienen	-10.568
▁Osten	-10.5691
▁23	-10.5693
▁mission	-10.5697
▁respond	-10.5703
▁prison	-10.5708
▁organizations	-10.571
▁Männern	-10.5712
▁multi	-10.5715
val	-10.5718
▁Tieren	-10.572
▁daughter	-10.5723
▁Wörter	-10.5723
▁Berg	-10.5723
kon	-10.5724
uck	-10.5725
▁Fenster	-10.5727
▁zufällig	-10.5727
▁Drogen	-10.5727
▁challenges	-10.5728
▁Great	-10.5733
▁Noch	-10.5733
▁Ben	-10.5735
▁Spitze	-10.5738
▁riesigen	-10.5738
▁Bäume	-10.5738
▁Regel	-10.5739
▁ändert	-10.5739
laden	-10.5744
ping	-10.5744
▁meters	-10.575
▁flying	-10.5755
▁Your	-10.5756
▁cross	-10.5762
▁spät	-10.5763
▁artist	-10.5763
▁condition	-10.5764
0	-10.5765
cher	-10.5776
ium	-10.5777
▁citizens	-10.5777
▁Again	-10.5781
▁Michael	-10.5781
▁Tochter	-10.5781
▁afraid	-10.5781
▁understood	-10.5781
▁straight	-10.5781
▁geschafft	-10.5781
▁types	-10.5782
▁handeln	-10.5783
▁weren	-10.5786
▁Nehme	-10.5787
▁male	-10.5789
▁evolved	-10.579
▁colleagues	-10.5791
▁bloß	-10.5796
▁programs	-10.5796
▁veröffentlicht	-10.5802
▁forces	-10.5806
▁diseases	-10.581
ib	-10.5814
▁echt	-10.5818
How	-10.5824
▁Jedes	-10.583
▁drop	-10.5832
▁mountain	-10.5832
▁scientist	-10.5834
▁Instead	-10.5836
▁Verfügung	-10.5836
▁bought	-10.5836
▁Opfer	-10.5836
▁dying	-10.5836
of	-10.5839
▁Botschaft	-10.5848
▁Antworten	-10.585
▁Region	-10.5851
▁stress	-10.5862
mit	-10.5864
▁Verbindungen	-10.587
▁reagieren	-10.5891
▁kontrollieren	-10.5891
▁behandelt	-10.5891
▁slightly	-10.5891
▁Online	-10.5891
▁Wandel	-10.5892
▁Infrastruktur	-10.5893
hm	-10.5901
▁täglich	-10.5908
▁decades	-10.5909
▁einfacher	-10.5916
▁produced	-10.592
▁radio	-10.5921
▁Unterschiede	-10.5934
▁Bett	-10.5944
die	-10.5944
▁Karriere	-10.5946
▁Zeichen	-10.5946
▁task	-10.5946
▁cultural	-10.5946
▁herzustellen	-10.5948
▁directly	-10.5949
eln	-10.5951
▁flu	-10.5955
▁Farben	-10.5957
lichkeit	-10.5959
▁zer	-10.5973
▁irgendeine	-10.5976
▁Produkte	-10.5982
▁achieve	-10.5984
▁aware	-10.5986
▁bestehen	-10.5987
▁Vi	-10.5988
▁worry	-10.5989
▁track	-10.5993
industrie	-10.6
▁micro	-10.6001
▁Geschwindigkeit	-10.6001
▁YouTube	-10.6001
▁campaign	-10.6001
▁Boston	-10.6001
▁sustainable	-10.6002
▁jemandem	-10.601
all	-10.6018
del	-10.6022
▁größeren	-10.6022
▁seemed	-10.6026
lin	-10.6028
▁Sterne	-10.6031
▁wichtigsten	-10.6046
off	-10.6047
ath	-10.6052
▁argument	-10.6053
▁dar	-10.6055
▁Sauerstoff	-10.6057
▁ermöglichen	-10.6057
▁beeinflussen	-10.6057
▁bridge	-10.6057
▁kämpfen	-10.6057
▁Lebensmittel	-10.6059
▁below	-10.6065
▁kenne	-10.6067
rate	-10.6069
▁whose	-10.6077
▁ha	-10.6089
▁ließ	-10.609
▁boys	-10.6091
▁einfachen	-10.6092
It	-10.6092
▁report	-10.6093
▁Fl	-10.6103
Wenn	-10.6103
▁sing	-10.611
▁Wunder	-10.6113
▁bat	-10.6113
▁central	-10.6113
▁Atmosphäre	-10.6113
▁creativity	-10.6113
▁easily	-10.6113
▁Dort	-10.6116
▁öffnen	-10.6117
▁relevant	-10.6118
▁Dan	-10.6118
▁Physik	-10.6118
▁Ziele	-10.6126
ped	-10.613
▁character	-10.613
ny	-10.6139
▁endlich	-10.614
▁Freunden	-10.6148
ps	-10.6154
werk	-10.616
ial	-10.6162
▁states	-10.6165
▁afford	-10.6169
▁brilliant	-10.617
▁commercial	-10.617
▁opportunities	-10.617
▁oxygen	-10.617
▁twice	-10.617
▁1960	-10.617
▁relationships	-10.6174
press	-10.6175
▁nearly	-10.6177
▁brauchte	-10.6178
▁Soldaten	-10.6179
▁basis	-10.618
▁interact	-10.6181
▁quote	-10.6195
for	-10.6196
▁catch	-10.6223
▁window	-10.6224
Do	-10.6226
▁Gewicht	-10.6227
▁Vielfalt	-10.6227
▁Materie	-10.6227
▁Mehr	-10.6227
▁funny	-10.6227
▁investment	-10.6228
▁Suche	-10.6231
▁paid	-10.6234
▁inter	-10.6239
stellen	-10.6247
▁eigenes	-10.6257
▁depend	-10.6258
▁Sin	-10.6264
▁hört	-10.6265
▁Jede	-10.6265
▁Zelle	-10.6266
▁engage	-10.6268
▁sogenannte	-10.6284
▁iPhone	-10.6284
▁überzeugt	-10.6284
▁Materialien	-10.6285
tter	-10.6286
▁Loch	-10.6287
▁landscape	-10.6289
▁core	-10.6292
▁Gefühle	-10.6294
▁aufgenommen	-10.6297
▁Gelegenheit	-10.6297
▁Sand	-10.631
▁eating	-10.632
▁speaking	-10.632
test	-10.6326
▁glass	-10.6334
▁Fluss	-10.6334
▁Zeiten	-10.6336
▁lack	-10.6343
▁weiterhin	-10.6343
▁Over	-10.6344
▁auszu	-10.6347
▁email	-10.6348
▁chemical	-10.6348
▁European	-10.6349
▁Take	-10.6351
▁nehme	-10.6356
bu	-10.6361
sel	-10.6369
▁bank	-10.637
arten	-10.6371
▁highly	-10.6375
▁discover	-10.6376
wie	-10.6377
▁Seit	-10.6386
▁workers	-10.6386
bt	-10.6388
▁rights	-10.6397
punkt	-10.6398
▁birth	-10.6399
▁GPS	-10.6399
▁Intelligenz	-10.6399
▁Komplexität	-10.6399
▁deutlich	-10.6399
▁imagination	-10.6399
▁vast	-10.6399
▁differences	-10.64
▁Ausdruck	-10.64
▁Satz	-10.64
▁fühle	-10.6401
▁politischen	-10.6406
▁alternative	-10.6407
▁angefangen	-10.6408
▁Position	-10.6413
▁tausende	-10.6415
▁causes	-10.6417
iz	-10.643
▁entstehen	-10.6434
▁fühlt	-10.6441
▁carry	-10.6447
▁Klima	-10.6454
▁College	-10.6457
▁überrascht	-10.6457
▁Ausbildung	-10.6458
▁earth	-10.6458
▁answers	-10.6459
▁dorthin	-10.646
▁10,000	-10.6463
▁Kunden	-10.6465
▁streets	-10.6466
▁stellten	-10.6467
▁seien	-10.6471
▁Klasse	-10.6473
▁Waffen	-10.6473
▁aufzu	-10.6479
▁Version	-10.6482
▁noticed	-10.6482
▁Ba	-10.649
pro	-10.6493
▁verbreitet	-10.65
▁spending	-10.65
ari	-10.6509
▁Kreativität	-10.6516
▁Robert	-10.6516
▁entlang	-10.6516
▁Holz	-10.6517
▁transform	-10.6517
▁Schlaf	-10.6518
▁Ansatz	-10.6523
▁Konferenz	-10.6526
▁missing	-10.6527
"-	-10.6528
▁influence	-10.6529
▁Kilometer	-10.6531
▁designers	-10.6532
▁Gemeinde	-10.6537
▁erwartet	-10.6542
▁helping	-10.6556
▁separate	-10.656
▁knowing	-10.6567
▁networks	-10.6574
▁responsibility	-10.6575
▁gilt	-10.6575
▁Sport	-10.6576
▁complexity	-10.6577
▁Feld	-10.6579
▁Last	-10.6579
▁definition	-10.6581
▁elektrische	-10.6585
▁communication	-10.6585
▁Wieder	-10.659
▁active	-10.6591
bare	-10.6592
▁His	-10.6594
▁Flug	-10.6595
▁boat	-10.6597
▁Professor	-10.6599
Du	-10.6606
▁Glauben	-10.6609
▁closer	-10.6613
halten	-10.6615
▁natürliche	-10.6616
▁Rat	-10.6624
ise	-10.6627
▁gotten	-10.6628
welt	-10.6629
▁erlauben	-10.6634
▁universal	-10.6634
▁diversity	-10.6634
▁desire	-10.6635
▁Drei	-10.6636
▁Science	-10.6638
▁erforschen	-10.6639
buch	-10.6643
▁kostet	-10.6643
iger	-10.6645
ank	-10.6649
▁Keine	-10.6659
▁signal	-10.666
▁Ra	-10.6667
tag	-10.6678
▁Werkzeuge	-10.668
▁tremendous	-10.6688
▁studying	-10.6688
▁trotz	-10.6693
▁Vertrauen	-10.6693
▁betrifft	-10.6693
▁surgery	-10.6693
▁grand	-10.6694
▁2007	-10.6695
▁Mikro	-10.6696
▁wert	-10.6698
con	-10.6701
▁trial	-10.6708
ble	-10.6708
▁schaut	-10.6711
▁molecules	-10.6711
▁weird	-10.6714
▁notion	-10.6717
▁99	-10.6717
▁Gesetze	-10.6719
▁Norden	-10.6721
▁Institute	-10.6724
▁laut	-10.6726
▁experiments	-10.6727
▁Handy	-10.6732
len	-10.6743
▁erklärt	-10.675
▁Titel	-10.6753
▁Paris	-10.6754
▁Drittel	-10.6754
▁dagegen	-10.6755
▁durchgeführt	-10.6756
▁anzu	-10.677
▁westliche	-10.6771
▁Gold	-10.6772
▁avoid	-10.6774
▁labor	-10.6776
▁Objekte	-10.6778
▁alleine	-10.6779
tes	-10.678
▁amerikanische	-10.6782
▁jump	-10.679
▁Gr	-10.6793
Ma	-10.6793
▁Gesellschaften	-10.6794
ierten	-10.68
hilfe	-10.6803
▁significant	-10.6808
▁Hirn	-10.6808
oo	-10.681
▁played	-10.6811
▁smell	-10.6813
▁yellow	-10.6813
▁rational	-10.6814
▁unbedingt	-10.6814
▁Zusammenarbeit	-10.6814
▁2005	-10.6815
ley	-10.6816
▁trip	-10.6816
▁beschäftigt	-10.682
▁markets	-10.6823
▁museum	-10.6824
▁Neuro	-10.6825
▁Insekten	-10.6826
▁Good	-10.6828
king	-10.6833
▁focused	-10.6835
▁Jobs	-10.6838
▁birds	-10.6845
▁graph	-10.6855
Ge	-10.6855
▁balance	-10.6859
▁none	-10.686
▁remind	-10.6864
zellen	-10.6865
▁Gas	-10.6867
▁equal	-10.6868
▁app	-10.6871
▁Unterstützung	-10.6874
▁ancient	-10.6874
ose	-10.6875
▁Tumor	-10.6876
▁Zentrum	-10.6882
schlag	-10.6887
▁warm	-10.6894
▁22	-10.6899
ob	-10.6899
term	-10.692
▁fully	-10.6921
Okay	-10.6929
legen	-10.6933
▁schwarze	-10.6935
▁dad	-10.6935
▁Middle	-10.6938
▁davor	-10.6941
▁komplexe	-10.6943
▁erstellen	-10.6948
▁intelligent	-10.695
▁genome	-10.6952
▁Präsident	-10.6954
▁Aufgaben	-10.6964
wa	-10.6972
▁hielt	-10.6979
Sie	-10.6982
▁block	-10.6987
This	-10.6991
▁Schutz	-10.6993
▁husband	-10.6996
▁competition	-10.6996
▁stolz	-10.6996
▁opposite	-10.6996
▁1990	-10.6996
▁flight	-10.6997
▁2009	-10.6998
▁dahin	-10.7001
org	-10.7004
▁passed	-10.7008
▁Klimawandel	-10.7014
durchschnittlich	-10.7015
▁Forscher	-10.7015
▁Sekunde	-10.7015
▁Spiele	-10.7015
▁degrees	-10.7017
▁laws	-10.7025
▁visit	-10.7034
lan	-10.7036
ure	-10.704
▁Zweitens	-10.7044
▁Fische	-10.7047
▁figured	-10.7049
nde	-10.7051
bringen	-10.7054
▁inner	-10.7056
▁Den	-10.7058
▁More	-10.7058
▁Identität	-10.7058
▁Ghana	-10.7058
▁Plastik	-10.7058
▁giant	-10.7058
hu	-10.7059
▁1,000	-10.7059
▁lucky	-10.706
▁investieren	-10.7062
▁represent	-10.7064
▁inspired	-10.7064
▁Virus	-10.7065
uelle	-10.7068
▁interview	-10.7069
▁Gang	-10.707
sehen	-10.7071
▁benefit	-10.7081
▁sick	-10.7087
▁herunter	-10.7099
▁langen	-10.7104
based	-10.7108
war	-10.7113
xi	-10.7115
lung	-10.7115
▁Wikipedia	-10.712
▁Schluss	-10.712
▁entsteht	-10.712
ities	-10.7123
rag	-10.7127
▁wider	-10.7128
▁beschreiben	-10.7132
▁Fernsehen	-10.7143
ok	-10.7147
▁forever	-10.716
Z	-10.7163
▁Pe	-10.7164
berg	-10.7175
▁Modelle	-10.7182
▁kommunizieren	-10.7183
▁religious	-10.7183
▁Bildschirm	-10.7183
▁consciousness	-10.7183
▁Neuronen	-10.7183
▁vollkommen	-10.7183
▁Basis	-10.7184
▁Niemand	-10.7185
▁Einsatz	-10.7185
▁sicherlich	-10.7188
▁noise	-10.7189
▁übertragen	-10.7189
▁Nutzen	-10.7196
▁entschied	-10.7201
ett	-10.7202
▁dreht	-10.7208
▁Sun	-10.7208
▁El	-10.7209
▁differently	-10.7213
▁deliver	-10.7217
▁heran	-10.7226
▁Spielen	-10.7226
▁argue	-10.7231
▁random	-10.724
▁öffentlich	-10.724
▁lautet	-10.7241
lei	-10.7243
▁clever	-10.7246
▁Großbritannien	-10.7246
▁breast	-10.7246
▁bestimmen	-10.7246
▁sorgen	-10.725
▁se	-10.7251
▁wunderbare	-10.726
ide	-10.7261
▁illegal	-10.7264
weg	-10.7267
ite	-10.7269
▁benötigt	-10.7271
▁prevent	-10.7283
▁Bar	-10.7283
▁legen	-10.7283
▁Zusammen	-10.7283
▁umgehen	-10.7284
ade	-10.7287
▁professional	-10.7287
▁hearing	-10.7302
▁Se	-10.7302
▁fort	-10.7304
▁buchstäblich	-10.7309
▁easier	-10.7309
▁magazine	-10.7309
▁stammt	-10.7309
▁farmers	-10.7311
▁darf	-10.7311
▁engine	-10.7314
▁devices	-10.7315
▁gaben	-10.7317
▁Bedingungen	-10.7319
▁stem	-10.732
▁Ameisen	-10.7322
eh	-10.7323
▁roll	-10.7327
▁Erinnerung	-10.7328
▁failure	-10.7333
▁effort	-10.7333
▁praktisch	-10.7335
▁bird	-10.734
ind	-10.7344
▁di	-10.7345
▁Eins	-10.7351
▁Hi	-10.7359
▁Werkzeug	-10.7364
schw	-10.7366
▁Have	-10.7368
red	-10.737
▁gene	-10.7372
▁French	-10.7373
▁begeistert	-10.7373
▁phenomenon	-10.7373
▁Gewebe	-10.7373
▁coast	-10.7373
▁Zusammenhang	-10.7373
▁Frieden	-10.7373
▁background	-10.7373
▁kümmern	-10.7376
▁Super	-10.7378
▁planets	-10.7378
▁fiel	-10.7381
▁bitten	-10.7382
▁Ob	-10.7384
eb	-10.7386
▁vollständig	-10.7386
lon	-10.739
▁saß	-10.7392
ons	-10.7395
▁geführt	-10.7405
▁events	-10.7409
druck	-10.7428
▁weiss	-10.7428
▁wealth	-10.7432
▁Organisationen	-10.7433
▁schafft	-10.7435
▁verkauft	-10.7435
▁Großteil	-10.7437
▁Irak	-10.7437
▁Wunsch	-10.744
▁BG	-10.7443
▁mouth	-10.7444
▁party	-10.7447
voll	-10.7453
▁Nichts	-10.746
geht	-10.7465
▁manage	-10.7467
arm	-10.7468
▁letztes	-10.7469
▁painting	-10.7477
▁Beste	-10.7482
▁Mexico	-10.7501
▁identity	-10.7501
▁vermutlich	-10.7501
▁Zuerst	-10.7501
▁despite	-10.7501
▁proud	-10.7503
▁Actually	-10.7505
▁fairly	-10.7508
▁sharing	-10.7511
▁describe	-10.7514
▁Typen	-10.7521
▁entwickelten	-10.7526
▁sowie	-10.7535
▁Ex	-10.7537
▁Boot	-10.7539
▁wood	-10.755
▁importantly	-10.756
▁habt	-10.7562
▁civil	-10.7565
▁Knochen	-10.7566
▁coffee	-10.7566
▁getötet	-10.7566
▁necessarily	-10.7566
▁chain	-10.7566
▁Kontext	-10.7566
▁bread	-10.7566
▁gewonnen	-10.7568
▁General	-10.757
▁verdienen	-10.7571
▁Lieblings	-10.7571
▁bezahlt	-10.7573
▁besitzen	-10.7576
▁erinnert	-10.7577
▁Phänomen	-10.7584
▁halb	-10.7592
▁erstaunliche	-10.7596
▁creates	-10.7599
▁Masse	-10.76
▁broken	-10.7604
▁base	-10.7616
▁passt	-10.7617
▁falsche	-10.7617
▁Genom	-10.7617
▁hinzu	-10.7627
▁ba	-10.7631
▁possibility	-10.7631
▁klingt	-10.7632
▁letztendlich	-10.7633
ina	-10.7636
▁click	-10.7636
▁hängt	-10.7643
▁abzu	-10.7644
▁foreign	-10.7644
▁Höhe	-10.7652
▁nötig	-10.7657
▁Asia	-10.7658
▁metaphor	-10.7658
▁27	-10.7661
▁weiteres	-10.7662
▁fragten	-10.7662
▁include	-10.7682
▁demand	-10.7689
▁perfekt	-10.7693
▁turning	-10.7695
▁verfügbar	-10.7697
▁herausgefunden	-10.7697
▁1980	-10.7697
▁childhood	-10.7698
▁ultimately	-10.77
▁chinesische	-10.7703
▁plus	-10.7704
▁selber	-10.7705
hor	-10.7707
▁tausend	-10.7708
▁leider	-10.771
▁sorry	-10.7713
ology	-10.7714
▁Sorgen	-10.7717
▁dieselbe	-10.7721
▁creatures	-10.7722
gang	-10.7724
fen	-10.7724
▁Fällen	-10.7726
▁sector	-10.7729
▁Glas	-10.773
▁usw	-10.774
▁cheap	-10.7746
▁double	-10.7749
tru	-10.7755
▁ma	-10.7759
▁responsible	-10.7764
▁Golf	-10.7764
▁Kindheit	-10.7767
▁artists	-10.7768
▁voraus	-10.7779
▁notwendig	-10.7784
▁Vision	-10.7785
▁drehen	-10.7788
ically	-10.7789
▁edge	-10.7799
ability	-10.78
ning	-10.7803
▁Geräte	-10.7806
▁Tom	-10.781
▁Bildern	-10.7811
▁Will	-10.7818
▁dreams	-10.7819
▁gift	-10.7821
än	-10.7826
▁Finanz	-10.783
gegangen	-10.783
▁creation	-10.783
▁studied	-10.783
▁gestalten	-10.783
▁Landwirtschaft	-10.7831
▁hinweg	-10.7832
▁basiert	-10.7832
▁spezielle	-10.7833
▁ange	-10.7834
▁benötigen	-10.7835
▁Laden	-10.7836
▁suffering	-10.7839
▁feels	-10.784
light	-10.7847
▁stecken	-10.785
▁besondere	-10.7854
▁werfen	-10.7863
▁collect	-10.7864
▁related	-10.7866
sum	-10.7872
▁date	-10.788
▁surprise	-10.7882
▁industrial	-10.7885
fahren	-10.7885
▁lief	-10.7892
sicht	-10.7897
▁wächst	-10.7897
▁Zimmer	-10.7898
▁Obama	-10.79
▁pop	-10.7901
▁members	-10.7902
▁sold	-10.7902
▁daß	-10.7904
▁Folge	-10.7905
tisch	-10.7906
▁65	-10.7909
▁Bi	-10.791
▁Affen	-10.7911
▁verbracht	-10.7913
▁rechten	-10.7914
▁entirely	-10.7917
▁desert	-10.792
▁Karten	-10.7922
isieren	-10.7924
▁adult	-10.7934
▁protein	-10.794
▁Welche	-10.7944
▁tough	-10.7944
▁fe	-10.7949
▁pounds	-10.795
▁Iraq	-10.7952
▁Kalifornien	-10.7965
▁dürfen	-10.7965
▁Sometimes	-10.7965
▁steckt	-10.7971
▁Open	-10.7972
▁Universums	-10.7982
▁held	-10.7983
har	-10.799
sam	-10.7992
▁tens	-10.7999
griff	-10.8012
▁Rand	-10.8013
▁Hund	-10.8019
▁match	-10.8019
▁attempt	-10.8026
▁halte	-10.8027
▁virtual	-10.8028
▁wahre	-10.8028
▁traffic	-10.8033
▁hauptsächlich	-10.8033
ete	-10.8052
▁raised	-10.8056
▁charge	-10.8056
▁anderem	-10.8058
▁detail	-10.8063
▁wunderbar	-10.8063
▁holding	-10.8069
Sch	-10.807
▁saving	-10.8073
▁Begriff	-10.8074
▁benefits	-10.8079
▁Kann	-10.8086
▁bees	-10.8089
▁drink	-10.8091
▁ausge	-10.8092
▁fragt	-10.8094
▁collective	-10.8097
▁wesentlich	-10.8099
ffentlichkeit	-10.8101
▁Thomas	-10.8101
▁advantage	-10.8101
▁leaving	-10.8101
▁debate	-10.8101
▁leadership	-10.8102
board	-10.8103
▁außerdem	-10.8105
▁particles	-10.8109
▁hohen	-10.811
kel	-10.812
lose	-10.8121
▁fashion	-10.8122
▁neuer	-10.8122
▁erzähle	-10.8133
▁600	-10.8136
▁Andere	-10.814
▁neighborhood	-10.8142
▁sentence	-10.8142
▁trick	-10.8143
▁soil	-10.8144
So	-10.8151
▁loss	-10.8155
▁opened	-10.8158
hin	-10.8161
▁Text	-10.8161
▁ernst	-10.8164
▁mindestens	-10.817
▁sozusagen	-10.817
▁vorhanden	-10.817
▁Gegenteil	-10.8171
▁unterscheiden	-10.8171
▁Haiti	-10.8171
▁Spieler	-10.8171
▁However	-10.8173
kommt	-10.8176
▁gelangen	-10.8181
▁eingesetzt	-10.8187
▁cloud	-10.8213
▁distance	-10.8216
▁Stein	-10.822
ay	-10.8226
▁Rede	-10.8234
▁experiences	-10.8234
▁wave	-10.8236
▁Gründen	-10.8237
▁Ball	-10.8238
isierung	-10.8239
▁übrig	-10.8239
▁depression	-10.824
▁töten	-10.824
▁Valley	-10.824
▁Kenya	-10.824
▁Brot	-10.8241
material	-10.8242
▁spot	-10.8243
▁entwerfen	-10.8243
▁river	-10.8243
▁Sehr	-10.8245
▁discovery	-10.8246
▁dollar	-10.8248
▁slowly	-10.8249
▁Gu	-10.8254
▁Institutionen	-10.8258
win	-10.8261
▁Mark	-10.8261
▁Wi	-10.8264
▁ship	-10.8265
▁Ecke	-10.8267
▁Geburt	-10.8274
ions	-10.8282
▁tissue	-10.8283
▁uses	-10.8283
haus	-10.8287
▁h	-10.8294
▁elements	-10.8294
▁vi	-10.8295
▁insects	-10.8301
▁exercise	-10.831
▁irgendwann	-10.831
▁strategy	-10.831
▁stärker	-10.8311
▁wohin	-10.8314
▁capable	-10.8317
▁modernen	-10.8317
▁Kreis	-10.8317
▁weapons	-10.8319
▁bright	-10.8326
▁Funktion	-10.8326
weise	-10.8327
▁dauert	-10.8328
par	-10.833
ual	-10.8331
wir	-10.8334
▁Temperatur	-10.8335
▁einzu	-10.8336
▁organisms	-10.8338
way	-10.8344
ock	-10.8347
▁transformation	-10.835
▁fail	-10.8357
▁farm	-10.8367
geben	-10.8373
wand	-10.8375
▁invest	-10.8375
▁State	-10.8377
▁vote	-10.8379
▁Microsoft	-10.838
▁interagieren	-10.838
▁verwandeln	-10.838
▁British	-10.838
▁Hintergrund	-10.838
▁stuck	-10.8381
▁Kerl	-10.8381
▁Militär	-10.8384
▁moon	-10.8384
▁efficient	-10.8385
iti	-10.8391
ile	-10.8393
▁compared	-10.8397
▁Herr	-10.8399
▁Ro	-10.8402
▁Gefahr	-10.8407
▁brings	-10.8408
▁Milliarde	-10.8408
▁adults	-10.8412
▁lieber	-10.8414
ek	-10.8419
▁Car	-10.8419
▁wichtigste	-10.8421
▁degree	-10.8437
▁closed	-10.844
▁spirit	-10.8441
▁finish	-10.8441
eck	-10.8443
▁Staat	-10.8444
▁älter	-10.845
▁compare	-10.845
▁necessary	-10.8451
▁1950	-10.8451
▁row	-10.8452
▁versu	-10.8453
▁Gleiche	-10.8453
hen	-10.8455
ogen	-10.8458
▁offer	-10.8462
▁Con	-10.8465
▁schöne	-10.8473
▁Start	-10.8475
ations	-10.8475
▁Rück	-10.8481
fach	-10.8488
jährigen	-10.8493
▁Che	-10.8498
▁sister	-10.8499
▁Band	-10.85
tung	-10.8509
ei	-10.851
▁glaubt	-10.851
▁bomb	-10.8512
▁contact	-10.8513
▁card	-10.8513
▁Beine	-10.8514
▁frage	-10.8516
skraft	-10.8516
▁Audience	-10.8522
▁irgendetwas	-10.8522
▁verantwortlich	-10.8522
▁vertraut	-10.8522
▁Stress	-10.8523
▁Zitat	-10.8523
▁mouse	-10.8523
▁names	-10.8524
▁Ri	-10.8526
▁DH	-10.8526
▁metal	-10.8529
▁Mission	-10.8533
▁Meilen	-10.8534
▁wiederum	-10.8538
▁Experten	-10.8549
▁Themen	-10.8559
pel	-10.8561
▁molecule	-10.8573
▁interaction	-10.8574
▁wirst	-10.8581
Der	-10.8584
wei	-10.8587
▁typical	-10.8589
▁sudden	-10.8589
jährige	-10.859
▁bone	-10.8593
▁quantum	-10.8594
▁Higgs	-10.8594
▁galaxies	-10.8594
▁constantly	-10.8598
▁fr	-10.8598
▁Fleisch	-10.8598
▁Kapital	-10.8599
▁structures	-10.8599
▁majority	-10.86
▁Regen	-10.8601
▁Did	-10.8605
▁Ph	-10.8607
▁deeply	-10.8608
▁era	-10.8609
▁Ga	-10.8613
▁Bitte	-10.8618
▁Cha	-10.8619
▁lustig	-10.862
▁innovative	-10.8621
▁reform	-10.8621
▁leading	-10.8623
stein	-10.8625
▁kulturelle	-10.8627
za	-10.8629
▁lebte	-10.8636
▁Lern	-10.864
▁leads	-10.8643
▁coral	-10.8646
▁lights	-10.8652
▁express	-10.8653
▁Sein	-10.8657
▁Vogel	-10.8664
▁Kon	-10.8664
▁Babys	-10.8666
▁verhindern	-10.8667
▁sitzt	-10.8667
▁Ausmaß	-10.8667
▁verfolgen	-10.8667
leg	-10.8668
▁patent	-10.8669
▁Verstand	-10.8669
▁Frank	-10.867
▁bezahlen	-10.8679
▁Strukturen	-10.869
▁gefährlich	-10.8692
▁Very	-10.8696
▁phones	-10.8701
▁Erkenntnis	-10.8702
ya	-10.8703
▁Jungs	-10.8704
lassen	-10.8706
▁Does	-10.8708
▁Gespräch	-10.871
▁Beweis	-10.8721
▁aktiv	-10.8723
▁normalen	-10.8724
▁promise	-10.8725
▁Filme	-10.8729
▁profound	-10.8735
▁krank	-10.8737
▁wide	-10.874
▁Müll	-10.874
▁fascinating	-10.874
▁gäbe	-10.874
▁hurt	-10.874
▁lunch	-10.874
▁Rahmen	-10.874
▁display	-10.874
▁feedback	-10.874
▁pump	-10.874
▁Außerdem	-10.874
▁circle	-10.8742
▁Once	-10.8743
▁erlebt	-10.8743
▁concerned	-10.8746
ges	-10.8747
▁interessieren	-10.8749
▁garden	-10.8749
▁heads	-10.875
▁Einkommen	-10.8752
▁perfectly	-10.8753
ition	-10.8755
▁höhere	-10.8767
▁starb	-10.8773
▁sequence	-10.8778
▁einge	-10.8778
▁weiteren	-10.8778
▁Jahres	-10.878
ors	-10.8788
▁gemeinsame	-10.8789
▁Falls	-10.879
▁leg	-10.8791
▁civilization	-10.8794
▁deinen	-10.8795
▁colors	-10.8804
▁hunderte	-10.8805
▁lesson	-10.8805
pt	-10.8806
▁mathematics	-10.8813
▁Human	-10.8814
▁gestern	-10.8814
▁Apple	-10.8816
▁Bush	-10.8817
▁spaces	-10.8819
▁oceans	-10.882
▁factory	-10.882
rad	-10.882
Nun	-10.8822
▁failed	-10.8824
lic	-10.8825
▁Folgendes	-10.8831
▁arbeiteten	-10.8835
▁dran	-10.8835
▁überzeugen	-10.8842
eren	-10.8846
▁Student	-10.8847
▁bekamen	-10.8852
▁häufig	-10.8854
▁Fi	-10.8854
▁schlimmer	-10.8855
▁Code	-10.8868
▁erster	-10.8869
▁brother	-10.887
ale	-10.887
▁Inhalt	-10.8871
▁schließen	-10.8873
▁harm	-10.8877
▁120	-10.8881
▁believed	-10.8882
▁Kohlenstoff	-10.8887
▁Oxford	-10.8887
▁artificial	-10.8887
▁Three	-10.8888
▁bieten	-10.8888
▁mirror	-10.8888
▁scheinen	-10.8888
▁otherwise	-10.8889
▁100,000	-10.8893
▁testen	-10.8893
▁grown	-10.8894
▁limited	-10.8895
▁Produktion	-10.8896
▁budget	-10.8896
▁band	-10.8898
▁surprised	-10.8904
ana	-10.8905
▁Konflikt	-10.8913
Ver	-10.8917
▁billions	-10.8918
▁Aktivität	-10.8918
▁Motor	-10.8918
▁Schwester	-10.8919
▁Wirtschafts	-10.8924
▁Ad	-10.8924
▁ants	-10.8932
ker	-10.8935
▁müsste	-10.8935
▁paying	-10.8937
▁schien	-10.8937
▁Problemen	-10.8939
▁exchange	-10.894
▁seat	-10.8941
▁Zug	-10.8944
nehmen	-10.8944
▁erhält	-10.8945
pri	-10.8951
▁sh	-10.8952
ischer	-10.8953
▁tue	-10.8957
▁university	-10.8962
▁unterstützt	-10.8962
▁Obwohl	-10.8963
▁vergleichen	-10.8963
▁miss	-10.8963
▁King	-10.8964
▁consumption	-10.8965
▁Mund	-10.8967
source	-10.8968
▁justice	-10.8971
▁kurze	-10.8974
▁nützlich	-10.8974
▁nächstes	-10.8975
▁Hunde	-10.8981
▁persönliche	-10.8983
▁moments	-10.8986
▁beat	-10.8992
▁Galaxien	-10.8995
▁Landschaft	-10.8996
▁App	-10.8998
▁Schiff	-10.9003
vo	-10.9005
▁electric	-10.901
erung	-10.9013
day	-10.9015
▁Standard	-10.9019
▁generate	-10.9023
▁Ganz	-10.9029
▁cycle	-10.9032
▁blaue	-10.9034
▁belief	-10.9035
▁bemerkt	-10.9036
▁Kaffee	-10.9037
▁Rätsel	-10.9037
▁Spiegel	-10.9037
▁entspricht	-10.9037
▁entworfen	-10.9037
▁worried	-10.9037
▁Augenblick	-10.9038
▁unfortunately	-10.9039
▁möglicherweise	-10.9039
▁nochmal	-10.9045
▁begins	-10.9048
▁angesehen	-10.905
▁grundlegende	-10.9053
▁fourth	-10.9056
▁gehalten	-10.9059
▁managed	-10.9061
▁versuchten	-10.9062
▁Entdeckung	-10.9069
ries	-10.9069
▁hoffen	-10.9071
▁meat	-10.9086
▁setzt	-10.9088
▁target	-10.9088
▁perform	-10.9092
▁lie	-10.9094
▁switch	-10.9095
▁II	-10.9096
▁struggle	-10.9098
▁chair	-10.91
band	-10.9101
▁Island	-10.9102
▁crowd	-10.9107
▁calls	-10.9109
▁stelle	-10.9111
▁Texas	-10.9113
▁caught	-10.9113
▁nervous	-10.9113
▁interface	-10.9113
▁Martin	-10.9113
▁equivalent	-10.9113
▁aufbauen	-10.9113
ür	-10.9119
▁Schimpansen	-10.9119
▁engineers	-10.9119
▁release	-10.9122
▁currently	-10.9123
pol	-10.9124
▁Laufe	-10.9124
▁expression	-10.9125
▁Viel	-10.9127
▁enter	-10.9128
▁erkannte	-10.9128
▁leader	-10.9136
work	-10.9138
▁Gedanke	-10.9147
▁Minute	-10.9147
▁bus	-10.9152
▁account	-10.9159
▁nah	-10.916
▁weder	-10.9169
ograph	-10.917
▁emotion	-10.9173
▁Moleküle	-10.9174
▁Bob	-10.9175
▁classroom	-10.9176
▁launch	-10.918
▁Sprachen	-10.9181
▁sad	-10.9186
▁Unternehmer	-10.9189
▁Organismen	-10.9189
▁Stanford	-10.9189
▁zugänglich	-10.9189
▁hoffentlich	-10.9189
▁Gegensatz	-10.919
▁smile	-10.919
▁faith	-10.9192
▁layer	-10.9192
▁Garten	-10.9192
▁Website	-10.9195
▁arms	-10.9199
▁motion	-10.9205
▁letter	-10.9212
▁Charakter	-10.9217
▁Lied	-10.9219
▁fighting	-10.9219
ight	-10.9221
▁strength	-10.9222
▁unabhängig	-10.9223
▁Star	-10.9231
▁250	-10.9232
▁organic	-10.9237
▁schönen	-10.9237
▁einsetzen	-10.9243
▁Experimente	-10.9248
▁linken	-10.9255
▁grade	-10.9256
▁seines	-10.9257
▁matters	-10.9259
▁Politiker	-10.9259
▁Arab	-10.9259
An	-10.926
▁Brazil	-10.9266
▁Individuen	-10.9266
▁gehabt	-10.9266
▁yesterday	-10.9266
▁Haufen	-10.9266
▁lernt	-10.9267
▁Zeitalter	-10.9269
▁solid	-10.9269
▁Project	-10.9271
▁bear	-10.9272
▁frame	-10.9272
▁highest	-10.9272
▁Ru	-10.9272
▁sichtbar	-10.9272
▁mentioned	-10.9275
▁hall	-10.9276
▁Sozial	-10.9276
▁motor	-10.9277
▁paint	-10.9279
▁Netzwerke	-10.9282
ain	-10.9283
▁multiple	-10.9283
▁th	-10.9289
▁walls	-10.929
▁mess	-10.9291
▁Seele	-10.9293
▁zahlen	-10.9296
▁zerstört	-10.9297
▁nannte	-10.9301
If	-10.9303
▁plane	-10.9306
▁Perspektive	-10.9307
▁Rot	-10.9308
▁serve	-10.9309
▁Massen	-10.932
▁Patient	-10.9326
▁climb	-10.9328
▁net	-10.9335
▁Aspekt	-10.9341
▁graduate	-10.9344
▁principles	-10.9344
▁Kombination	-10.9344
▁Zuschauer	-10.9344
▁survival	-10.9344
▁könnt	-10.9344
▁verteilt	-10.9344
▁erscheinen	-10.9344
▁Eigentlich	-10.9347
▁collection	-10.9347
▁mid	-10.9349
▁Stand	-10.9349
▁gelesen	-10.9351
▁Ehe	-10.9355
▁Bas	-10.9355
▁Bauern	-10.9357
markt	-10.9357
▁aufhören	-10.936
ologie	-10.9361
▁described	-10.9362
▁Gehirne	-10.9362
▁genauer	-10.9363
▁normally	-10.9365
▁taste	-10.9366
▁trained	-10.9372
▁Di	-10.9377
▁finger	-10.9378
▁Mütter	-10.9379
▁Australia	-10.9379
recht	-10.938
▁Ar	-10.9384
▁Rücken	-10.9392
▁Ah	-10.9398
▁expand	-10.9398
▁versch	-10.9399
tzt	-10.9402
▁1.	-10.9403
▁identify	-10.9408
▁link	-10.9409
▁enable	-10.9409
▁Per	-10.9409
▁flag	-10.9412
▁reward	-10.9414
▁soldiers	-10.9418
▁Kurz	-10.942
▁parallel	-10.942
▁equipment	-10.9422
▁Dinosaurier	-10.9422
▁Wahrnehmung	-10.9422
▁intellectual	-10.9422
▁Hoch	-10.9422
▁distribution	-10.9422
▁awful	-10.9423
▁Klang	-10.9423
▁Wettbewerb	-10.9425
▁unless	-10.9429
▁clip	-10.943
▁Hinsicht	-10.9434
▁partner	-10.9435
▁emotions	-10.9435
▁wearing	-10.9435
▁pure	-10.9438
▁enorme	-10.9439
▁Fakten	-10.9442
▁treated	-10.9445
▁gesund	-10.9446
▁threat	-10.9447
▁prove	-10.9447
▁indische	-10.9449
▁Beweise	-10.9455
▁Schmerz	-10.9456
▁Träume	-10.9458
▁entstanden	-10.9459
▁holen	-10.9459
ls	-10.946
mmer	-10.9466
▁32	-10.9467
▁Top	-10.9467
▁Stimmen	-10.9471
ere	-10.9471
▁Jo	-10.9481
▁fill	-10.9482
▁Forschungs	-10.9485
▁toward	-10.9485
▁harder	-10.9486
▁folgende	-10.9489
over	-10.9489
▁vehicle	-10.9493
▁bedeuten	-10.9494
feld	-10.9496
▁cognitive	-10.9501
▁invisible	-10.9501
▁kürzlich	-10.9501
▁allerdings	-10.9501
▁Brust	-10.9501
▁property	-10.9501
▁Green	-10.9501
▁Händen	-10.9502
▁dennoch	-10.9503
▁associated	-10.9506
▁trägt	-10.9506
▁finished	-10.9511
▁received	-10.9512
verständlich	-10.9512
▁relativ	-10.9515
▁Muslim	-10.9531
▁Tausende	-10.9535
▁Häuser	-10.9537
▁ring	-10.954
▁Nationen	-10.9542
▁verbrachte	-10.9547
▁joy	-10.9552
▁Radio	-10.9552
▁genetische	-10.9559
▁clinical	-10.9559
▁tr	-10.9559
▁cure	-10.9561
▁Ganze	-10.9562
▁define	-10.9566
zeug	-10.9566
fallen	-10.9567
▁helps	-10.9571
▁existieren	-10.9572
▁member	-10.9575
▁remote	-10.9575
▁Bruder	-10.958
▁Manhattan	-10.958
▁grandmother	-10.958
▁kennt	-10.958
▁combination	-10.9581
▁fördern	-10.9581
zukommen	-10.9581
▁Peter	-10.9582
▁dry	-10.9582
▁hopefully	-10.9582
▁nutzt	-10.9583
▁berührt	-10.9586
▁Vorteil	-10.9587
▁Elemente	-10.9588
▁direct	-10.9593
stoff	-10.9602
▁erwähnt	-10.9614
▁leiden	-10.9615
▁Anwendung	-10.9616
▁gold	-10.9617
wi	-10.963
top	-10.9633
▁auseinander	-10.9633
▁zog	-10.9644
kraft	-10.9646
▁honest	-10.965
▁Bu	-10.965
▁erstes	-10.9654
▁sexual	-10.9654
▁dynamic	-10.9655
▁Methoden	-10.9655
▁Medikament	-10.9656
▁president	-10.966
▁gestorben	-10.966
▁marriage	-10.966
▁verschwinden	-10.966
▁zerstören	-10.966
▁überraschend	-10.966
▁beantworten	-10.966
▁chicken	-10.966
▁Linien	-10.9661
last	-10.9661
▁professor	-10.9662
▁schaute	-10.9662
▁curious	-10.9662
▁Eindruck	-10.9664
▁eindeutig	-10.9665
▁launched	-10.967
▁faces	-10.967
▁coal	-10.967
▁Would	-10.9676
▁round	-10.9678
▁Informations	-10.9679
▁pack	-10.9689
rüber	-10.9697
eur	-10.9698
pen	-10.9698
▁Kräfte	-10.9699
▁broke	-10.9699
▁lokale	-10.97
▁Maus	-10.97
▁beschlossen	-10.9704
Ha	-10.9706
▁aufregend	-10.9708
kosystem	-10.9711
▁Schw	-10.9716
▁ähnliche	-10.9721
▁Bewegungen	-10.9721
▁steigen	-10.9728
▁spring	-10.9729
▁whom	-10.9734
▁Grün	-10.9734
▁article	-10.9736
wert	-10.974
▁roof	-10.9741
▁agriculture	-10.9741
▁stood	-10.9741
▁Tanz	-10.9741
▁weather	-10.9741
kultur	-10.9741
▁Jim	-10.9743
▁Kohle	-10.9743
▁hergestellt	-10.9743
▁everyday	-10.9744
▁engineer	-10.9745
▁Germany	-10.9745
▁morgen	-10.9747
▁studieren	-10.9747
▁geschickt	-10.9751
▁Hu	-10.9752
▁designer	-10.9753
▁accident	-10.9758
part	-10.9759
▁Wal	-10.976
pass	-10.9762
▁reicht	-10.9763
▁zoom	-10.9763
▁May	-10.9764
▁followed	-10.9766
▁electrical	-10.9769
schnitt	-10.977
▁Folgen	-10.9774
use	-10.9777
▁kurzen	-10.9778
▁besagt	-10.9779
▁breath	-10.978
▁kilometers	-10.9781
reich	-10.9783
si	-10.9784
kal	-10.9793
netz	-10.9793
▁Elektrizität	-10.9799
▁Gedicht	-10.9803
pla	-10.9807
tische	-10.9808
ust	-10.9809
▁copy	-10.981
▁0	-10.9814
▁evil	-10.9822
▁hidden	-10.9822
▁stupid	-10.9822
▁Brasilien	-10.9822
▁doppelt	-10.9822
▁epidemic	-10.9822
▁dritten	-10.9823
▁safety	-10.9823
car	-10.9823
▁gewählt	-10.9826
▁Wirkung	-10.9826
▁fell	-10.983
port	-10.9831
▁theater	-10.9834
▁opening	-10.9838
▁master	-10.9839
▁Talk	-10.9843
▁Anti	-10.9843
j	-10.9843
▁killing	-10.985
▁behalten	-10.9851
haft	-10.9854
▁Fe	-10.9855
11	-10.9856
Gesundheitswesen	-10.9858
ht	-10.9859
▁somit	-10.9868
▁testing	-10.9875
▁Sea	-10.9882
net	-10.9883
▁ließen	-10.9886
▁damage	-10.9889
▁pages	-10.9896
▁exact	-10.9899
▁Uganda	-10.9904
▁heavy	-10.9904
▁Jemand	-10.9904
▁verbreiten	-10.9904
▁Everybody	-10.9904
▁operating	-10.9904
▁fellow	-10.9904
▁wake	-10.9904
▁resource	-10.9905
▁kick	-10.9905
▁comfortable	-10.9905
▁Viertel	-10.9906
▁Amazon	-10.9906
▁Umfeld	-10.9907
fälle	-10.9907
▁facing	-10.9908
▁definieren	-10.9908
▁Etwas	-10.9913
▁bo	-10.9913
▁ride	-10.9915
▁battle	-10.9923
▁warming	-10.9925
▁drawing	-10.9929
▁Krise	-10.9942
ence	-10.9944
▁spoke	-10.9948
▁tail	-10.9949
▁rede	-10.995
▁movies	-10.9954
▁wenigen	-10.9955
▁Signal	-10.9956
▁v	-10.9959
▁inspiriert	-10.9961
▁aufge	-10.9965
▁Gewinn	-10.997
▁Korea	-10.9978
▁researchers	-10.9979
Mail	-10.998
▁Ze	-10.9981
öl	-10.9981
▁crime	-10.9986
▁Australien	-10.9987
▁Mexiko	-10.9987
▁erfinden	-10.9987
▁galaxy	-10.9987
▁geändert	-10.9987
▁principle	-10.9987
▁peak	-10.9987
▁Japanese	-10.9987
▁Lachen	-10.9989
▁players	-10.9989
▁Wein	-10.9996
▁credit	-10.9998
▁meiste	-10.9998
▁Zweck	-11.0001
sländern	-11.0003
▁Show	-11.0006
▁meistens	-11.0008
▁watched	-11.0019
▁lies	-11.0023
▁folks	-11.0026
▁blieb	-11.0031
▁rot	-11.0032
▁internationale	-11.0032
tun	-11.0035
▁tape	-11.0035
rang	-11.0037
▁Armen	-11.0039
▁Werk	-11.0041
▁businesses	-11.0041
▁Insel	-11.0041
▁designing	-11.0043
▁fern	-11.0043
weit	-11.0043
▁Gemeinden	-11.0048
lig	-11.0051
ily	-11.0054
▁adapt	-11.0055
▁fl	-11.0058
▁users	-11.006
▁schlechter	-11.0062
▁Global	-11.007
▁fresh	-11.007
▁Alzheimer	-11.007
▁Chemie	-11.007
▁beinhaltet	-11.007
▁dinner	-11.007
▁transparent	-11.007
▁healthcare	-11.007
▁Korruption	-11.007
▁chemistry	-11.007
▁airplane	-11.007
▁Abschluss	-11.007
▁construction	-11.0072
▁2,000	-11.0072
▁gender	-11.0073
▁Kl	-11.0073
▁continent	-11.0074
▁Union	-11.0075
▁Air	-11.0076
▁Fünf	-11.0076
▁beobachtet	-11.0078
▁10.000	-11.0078
funktion	-11.0085
tern	-11.0087
▁Nation	-11.0092
▁te	-11.0093
▁effektiv	-11.0095
▁abhängig	-11.0095
▁generations	-11.0097
▁brachten	-11.0098
▁wondering	-11.0099
▁Generationen	-11.0101
tu	-11.0102
ball	-11.0102
▁Videos	-11.0106
schaftlichen	-11.011
▁Ansicht	-11.0112
▁Planet	-11.0113
▁gegenseitig	-11.0116
▁Grenze	-11.0127
▁br	-11.013
▁Lo	-11.0132
▁signals	-11.0136
▁correct	-11.0137
▁Cent	-11.0138
▁schlagen	-11.0142
▁einiger	-11.0144
▁erkennt	-11.0145
▁President	-11.0154
▁ordinary	-11.0154
▁reduzieren	-11.0154
▁wisdom	-11.0154
▁joke	-11.0154
▁Schatten	-11.0154
▁platform	-11.0155
▁scene	-11.0156
▁teuer	-11.0156
▁invention	-11.0157
▁künstliche	-11.0161
rich	-11.0162
▁seriously	-11.0164
▁fähig	-11.0172
▁verbessert	-11.0172
▁Teilchen	-11.0173
Yes	-11.0179
lle	-11.0182
mittel	-11.0184
▁starke	-11.0184
machen	-11.0185
mann	-11.019
▁moves	-11.0199
▁höre	-11.0202
▁Mitarbeiter	-11.0202
▁Red	-11.0203
▁brauche	-11.0203
▁button	-11.0203
▁statistics	-11.0205
▁leaves	-11.0206
▁losing	-11.0207
▁filter	-11.0214
2-	-11.0221
ious	-11.0221
▁lay	-11.0222
▁perfekte	-11.0229
▁gewissen	-11.0232
Mo	-11.0233
▁speziell	-11.0235
▁wear	-11.0236
▁steps	-11.0237
▁Zucker	-11.0239
▁Hollywood	-11.0239
▁underneath	-11.0239
▁importance	-11.0239
▁1970	-11.0239
▁planning	-11.0239
▁roten	-11.0241
meter	-11.0242
▁PM	-11.0243
▁method	-11.0243
▁morgens	-11.0243
▁mistake	-11.0243
▁daily	-11.0244
icht	-11.0248
ible	-11.0253
▁selten	-11.0259
▁Nachbarn	-11.0261
▁schrecklich	-11.0266
▁cat	-11.0266
▁gap	-11.0267
▁stream	-11.0269
▁kl	-11.027
▁pen	-11.0275
je	-11.0279
▁Diskussion	-11.0279
programm	-11.0284
▁Si	-11.0294
▁processes	-11.0298
▁laugh	-11.03
tech	-11.0304
▁detect	-11.0308
▁relate	-11.031
▁hate	-11.0311
▁trans	-11.0311
▁calling	-11.0312
▁Theater	-11.0317
daten	-11.0318
▁technical	-11.0319
▁automatisch	-11.0324
▁poetry	-11.0325
▁according	-11.0326
▁unbe	-11.0328
▁transition	-11.0328
▁26	-11.033
▁due	-11.0331
▁normale	-11.0332
▁lifetime	-11.0334
▁wichtigen	-11.0334
▁Emotionen	-11.0335
atur	-11.0339
▁voran	-11.0342
▁zählen	-11.0347
▁Vier	-11.0354
▁entwickelte	-11.0355
▁rote	-11.0367
▁Stufe	-11.0367
▁Operation	-11.0368
▁Seine	-11.0374
▁Ruf	-11.0379
▁economics	-11.0381
▁leid	-11.0381
▁Ku	-11.0384
▁enorm	-11.0386
set	-11.0387
mat	-11.0388
▁Arbeiten	-11.0389
▁homes	-11.0395
0.000	-11.0398
▁grüne	-11.0398
▁visuelle	-11.0404
▁setzte	-11.0405
tritt	-11.0408
▁Smith	-11.041
▁Zuhause	-11.041
▁aufzubauen	-11.041
▁drüben	-11.041
▁perception	-11.041
▁Homo	-11.0411
▁Südafrika	-11.0416
▁eng	-11.0417
▁sample	-11.0418
▁invited	-11.0421
▁tap	-11.0422
▁option	-11.0423
▁wenigsten	-11.0424
ied	-11.0424
▁meist	-11.0424
▁tiefer	-11.0426
▁soft	-11.0428
▁Süd	-11.0434
▁exists	-11.0437
systeme	-11.0437
▁brauchten	-11.0439
▁steigt	-11.0439
▁photos	-11.0448
▁station	-11.0451
▁zieht	-11.0451
▁print	-11.0452
kla	-11.0453
▁Geschäfts	-11.0455
▁shoes	-11.0458
back	-11.0458
▁deeper	-11.0466
▁Tr	-11.0474
kar	-11.0492
▁capture	-11.0494
▁trillion	-11.0497
▁Unterhaltung	-11.0498
▁darstellen	-11.0498
▁existence	-11.0498
▁hide	-11.05
▁horse	-11.0505
▁beschäftigen	-11.0505
▁arrived	-11.0505
▁management	-11.051
über	-11.0512
▁Lauf	-11.0513
▁covered	-11.0514
Er	-11.0516
ender	-11.052
▁experts	-11.052
qua	-11.0524
▁Zeitung	-11.053
▁Hai	-11.0536
▁besseren	-11.0541
well	-11.0543
▁saved	-11.0545
projekt	-11.0547
▁Kurs	-11.0548
ang	-11.0554
▁accept	-11.056
▁reichen	-11.056
satz	-11.0561
▁fan	-11.0563
▁soul	-11.0564
ular	-11.0564
ship	-11.0572
▁28	-11.0577
▁surprising	-11.058
▁essential	-11.058
▁rare	-11.0582
sse	-11.0583
▁Definition	-11.0585
▁Existenz	-11.0585
▁Malaria	-11.0585
▁verbindet	-11.0585
▁Health	-11.0585
▁Maßstab	-11.0585
▁Deutschland	-11.0585
▁Mikroben	-11.0586
▁2006	-11.0587
▁2003	-11.0587
▁flat	-11.0591
head	-11.0592
▁tank	-11.0592
▁gehören	-11.0593
▁International	-11.0593
▁bottle	-11.0595
▁Organ	-11.0596
▁aufgebaut	-11.0596
▁poem	-11.0597
▁zunächst	-11.0597
▁Mut	-11.06
▁suit	-11.06
▁Körpers	-11.0601
▁Post	-11.0601
▁consumer	-11.0603
▁Molekül	-11.0603
▁Architekten	-11.0604
▁Thanks	-11.0607
▁solch	-11.0612
gebracht	-11.0614
▁annehmen	-11.0623
▁Ur	-11.0625
▁Dach	-11.0625
▁traditionellen	-11.0626
wissenschaften	-11.0626
▁wieso	-11.0627
ord	-11.063
▁wuchs	-11.0645
nden	-11.0645
La	-11.065
ult	-11.0652
▁rates	-11.066
krieg	-11.0663
▁mention	-11.0667
ulation	-11.0668
▁consequences	-11.0668
▁quiet	-11.0668
▁Hinter	-11.0672
▁novel	-11.0673
▁empty	-11.0674
▁pleasure	-11.0674
▁rural	-11.0674
▁conclusion	-11.0674
▁Darstellung	-11.0674
▁sugar	-11.0674
▁corruption	-11.0674
▁Ausstellung	-11.0674
platz	-11.0676
▁Derek	-11.0678
▁w	-11.068
▁las	-11.0685
▁island	-11.0685
▁convinced	-11.0687
▁Erst	-11.0689
ving	-11.0693
▁Zell	-11.0695
▁camp	-11.0698
He	-11.07
▁kurzem	-11.0701
▁experienced	-11.0704
gegeben	-11.0708
gezogen	-11.0714
tal	-11.0717
▁fat	-11.072
gabe	-11.0723
▁mitten	-11.0732
▁height	-11.0733
▁fuhr	-11.0738
▁el	-11.074
▁Pu	-11.0741
▁relative	-11.0742
▁suggest	-11.0747
▁persönlich	-11.0749
cent	-11.075
▁requires	-11.075
▁chemicals	-11.0752
ort	-11.0756
▁burn	-11.0756
▁Gericht	-11.0759
▁require	-11.0761
▁besorgt	-11.0763
▁sweet	-11.0763
▁verdient	-11.0763
▁grundsätzlich	-11.0763
▁anwenden	-11.0763
▁Gras	-11.0763
▁France	-11.0763
▁Wohlstand	-11.0763
▁mittlere	-11.0763
▁flies	-11.0764
af	-11.0764
▁fängt	-11.0767
▁beliebt	-11.0767
▁increasingly	-11.0768
▁relatively	-11.0768
▁bike	-11.0773
▁folgt	-11.0775
▁Roman	-11.0778
▁sprachen	-11.0778
▁Arbeiter	-11.0779
▁emissions	-11.0785
▁digitale	-11.0788
▁connections	-11.0792
▁hang	-11.0793
▁spielte	-11.0802
▁Their	-11.0807
rung	-11.0807
lager	-11.0811
▁weak	-11.0812
▁Strategie	-11.0817
▁lebten	-11.0817
▁gun	-11.0818
geschichte	-11.0824
uß	-11.0824
▁21.	-11.0827
▁Br	-11.0828
▁disappear	-11.0829
▁languages	-11.083
▁dots	-11.0833
▁dealing	-11.0834
▁player	-11.0838
▁signs	-11.0839
▁Day	-11.0839
sprozess	-11.084
▁faszinierend	-11.0841
▁operate	-11.0841
wirtschaft	-11.0841
▁transport	-11.0843
▁Schrift	-11.0844
▁mis	-11.0847
▁solcher	-11.0847
▁increasing	-11.0848
▁drin	-11.0848
▁Lebewesen	-11.0853
▁Stuhl	-11.0853
▁analysis	-11.0853
▁tomorrow	-11.0853
▁äußerst	-11.0853
▁vermitteln	-11.0853
▁microbes	-11.0853
▁dimensions	-11.0855
▁season	-11.0856
▁rocket	-11.0856
▁Everything	-11.0858
▁filled	-11.0864
▁reaction	-11.0868
▁independent	-11.0868
oh	-11.087
▁95	-11.0871
ric	-11.0872
▁gelöst	-11.0873
▁erstellt	-11.0875
▁entdeckte	-11.0878
▁fantastisch	-11.088
laufen	-11.0884
▁unge	-11.0888
▁waves	-11.0888
▁Anteil	-11.0889
▁kannte	-11.089
▁unit	-11.0898
▁driver	-11.0899
▁Vögel	-11.09
▁Pla	-11.0902
fu	-11.0904
ory	-11.0913
▁Act	-11.0917
▁tons	-11.0927
▁Bereiche	-11.0927
▁shoot	-11.093
▁honor	-11.0934
▁Kulturen	-11.0936
▁gain	-11.0937
▁regular	-11.0939
▁south	-11.0942
▁Geräusch	-11.0942
▁north	-11.0944
▁married	-11.0944
▁reagiert	-11.0944
▁vulnerable	-11.0944
▁überwinden	-11.0944
▁molecular	-11.0944
▁introduce	-11.0944
▁GDP	-11.0944
▁Viren	-11.0945
▁2001	-11.0947
▁cutting	-11.0947
▁winter	-11.0947
▁Werbung	-11.0949
pu	-11.0951
▁orange	-11.0951
▁Freundin	-11.0955
▁Atem	-11.0956
can	-11.0956
▁location	-11.096
▁satellite	-11.096
▁letters	-11.0961
▁Yorker	-11.0963
▁Pi	-11.0965
unter	-11.0968
▁expected	-11.0968
rew	-11.0969
▁added	-11.0976
▁blow	-11.0978
▁caused	-11.0979
igung	-11.0984
▁700	-11.0992
ese	-11.0992
ture	-11.0996
▁dunkle	-11.1
▁echten	-11.1002
▁cook	-11.1005
▁weibliche	-11.1009
▁heißen	-11.1011
▁müssten	-11.1012
chte	-11.1014
▁starten	-11.1018
zer	-11.102
▁vorne	-11.1024
▁Hey	-11.1028
Ein	-11.1029
schrift	-11.1029
▁appear	-11.1029
wesen	-11.1032
▁emerging	-11.1036
▁fasziniert	-11.1036
▁length	-11.1036
▁title	-11.1036
▁Hunger	-11.1036
▁Canada	-11.1036
▁Could	-11.1036
▁SMS	-11.1036
▁Mar	-11.1036
▁specifically	-11.1037
▁Winter	-11.1038
▁vermeiden	-11.1038
▁Vorfahren	-11.1041
▁Bay	-11.1046
▁anschaut	-11.1051
▁Jahrzehnt	-11.1052
▁Fach	-11.1052
wo	-11.1057
▁considered	-11.1058
▁split	-11.1059
▁Effekt	-11.1061
▁Shi	-11.1064
▁Tests	-11.1065
▁picked	-11.1067
stehen	-11.1072
▁Details	-11.108
▁sites	-11.1083
▁sending	-11.1083
▁Erklärung	-11.1085
▁mothers	-11.109
Wo	-11.1091
▁passen	-11.1093
ris	-11.1097
▁Neues	-11.1098
▁verhalten	-11.1101
stellung	-11.1103
uh	-11.1107
seite	-11.112
▁Klein	-11.1126
▁Verlust	-11.1127
▁Geheimnis	-11.1128
▁Potential	-11.1128
▁lediglich	-11.1128
▁variety	-11.1128
▁hydrogen	-11.1128
▁Auswahl	-11.1129
▁außen	-11.1129
▁enthält	-11.1129
▁berühmte	-11.1129
▁protest	-11.1131
▁gay	-11.1131
▁darstellt	-11.1132
▁Weile	-11.1132
▁rapidly	-11.1132
med	-11.1136
▁Könnte	-11.1136
▁effectively	-11.1138
▁statement	-11.1141
fisch	-11.1142
▁moralische	-11.1146
▁Wa	-11.1147
▁ecosystem	-11.1148
▁muscle	-11.1148
▁Verhältnis	-11.115
▁Ki	-11.1154
That	-11.1155
licht	-11.1157
▁element	-11.1157
▁instrument	-11.1161
▁fields	-11.1161
▁Joe	-11.1162
▁Sicherheits	-11.1176
▁schlechten	-11.1177
▁beschloss	-11.118
▁forced	-11.1183
▁Aufnahme	-11.1187
▁sources	-11.1187
lang	-11.1188
▁Süden	-11.1189
istic	-11.1196
▁trials	-11.1201
schalten	-11.1214
▁characters	-11.1216
▁Gesamt	-11.1222
▁Florida	-11.1222
▁Risiken	-11.1222
▁possibilities	-11.1222
▁gelebt	-11.1222
▁Chemikalien	-11.1222
▁erscheint	-11.1222
▁steel	-11.1222
▁Gates	-11.1222
▁grid	-11.1222
▁persönlichen	-11.1228
▁producing	-11.1228
▁ergibt	-11.123
▁parent	-11.1231
▁volume	-11.1233
▁scared	-11.1233
▁organized	-11.1243
▁discussion	-11.1243
▁carrying	-11.1244
▁Wetter	-11.1245
▁engaged	-11.1246
▁lo	-11.1247
▁Diagramm	-11.1248
▁leichter	-11.1248
▁ko	-11.1249
▁stehe	-11.1252
50	-11.1252
kle	-11.1253
▁hasn	-11.127
▁alter	-11.1272
▁entstand	-11.1273
▁verstehe	-11.1282
weisen	-11.129
▁fantastische	-11.1293
▁natürlichen	-11.1294
▁Rock	-11.1294
▁chart	-11.1294
▁Ni	-11.13
▁wine	-11.131
▁vers	-11.1315
▁Foundation	-11.1316
▁valuable	-11.1316
▁Großmutter	-11.1316
▁properties	-11.1316
▁sculpture	-11.1316
▁Fahrrad	-11.1316
▁stattdessen	-11.1316
▁judge	-11.1316
▁Damals	-11.1316
▁Grand	-11.1318
▁konzentriert	-11.132
▁setting	-11.1322
▁KB	-11.1326
▁limit	-11.133
▁sparen	-11.1333
vis	-11.1333
▁studio	-11.1333
▁White	-11.1333
▁goals	-11.1334
▁10-	-11.1335
▁ersetzen	-11.1338
▁Helden	-11.1339
▁bubble	-11.1339
▁shop	-11.134
▁holes	-11.134
▁hinten	-11.1341
▁Mac	-11.1342
▁mu	-11.1347
scale	-11.1348
▁Tradition	-11.1354
▁Uni	-11.136
▁SS	-11.1363
▁menschlicher	-11.1363
▁Moral	-11.1374
jo	-11.1384
▁zentrale	-11.1389
▁Gegen	-11.1391
▁assume	-11.1396
iss	-11.1397
▁addition	-11.1397
gerät	-11.1397
▁Bereichen	-11.1397
▁Tu	-11.14
▁Verhaltens	-11.1403
▁radical	-11.1406
▁German	-11.1407
▁Doktor	-11.1409
▁extract	-11.1409
▁battery	-11.1411
▁drauf	-11.1411
▁reduziert	-11.1411
▁teeth	-11.1411
▁Anyway	-11.1411
▁plate	-11.1411
▁Riesen	-11.1412
▁schlafen	-11.1412
▁lady	-11.1412
▁marine	-11.1412
▁Zufall	-11.1413
▁sight	-11.1413
wissenschaft	-11.142
▁grain	-11.142
▁Kampagne	-11.1422
▁Leider	-11.1423
▁dank	-11.1428
uer	-11.143
▁Ingenieur	-11.1438
ther	-11.144
zugehen	-11.144
Look	-11.1441
▁curve	-11.1441
▁800	-11.1441
▁restaurant	-11.1442
▁employees	-11.1451
Da	-11.1457
▁factor	-11.1459
▁Untersuchung	-11.1463
▁musst	-11.1465
▁Rechte	-11.1466
▁invent	-11.1467
▁Herren	-11.1473
▁Würde	-11.1474
▁represents	-11.1476
▁rief	-11.1483
▁victims	-11.1485
führen	-11.149
▁convince	-11.1493
▁Ne	-11.1493
▁33	-11.1493
▁bag	-11.1493
▁biologische	-11.1499
▁crack	-11.1499
▁wi	-11.1499
▁Nord	-11.1499
▁Lab	-11.1501
▁practical	-11.1502
bot	-11.1502
bahn	-11.1507
▁Cambridge	-11.1507
▁Gegenwart	-11.1507
▁Löcher	-11.1507
▁beinahe	-11.1507
▁inspiration	-11.1507
▁Geschenk	-11.1508
▁gebraucht	-11.1508
▁mortality	-11.1508
▁deswegen	-11.1508
▁Teilnehmer	-11.1508
▁Schuld	-11.151
▁roughly	-11.1511
▁myth	-11.1511
▁Darum	-11.1512
▁carefully	-11.1512
▁status	-11.1513
▁loop	-11.1513
▁thin	-11.1514
▁Pflege	-11.1517
ieg	-11.1521
▁schätzen	-11.1524
wer	-11.1526
▁soviel	-11.1527
▁however	-11.1528
▁verwandelt	-11.1529
▁lessons	-11.1534
▁shark	-11.1535
▁Lager	-11.1537
▁nu	-11.1539
▁Akt	-11.1541
▁Interessen	-11.1549
▁Musiker	-11.1553
rop	-11.1556
heim	-11.1556
▁prime	-11.1556
▁Galaxie	-11.1562
bereit	-11.1562
▁Phase	-11.1566
▁linear	-11.157
▁tip	-11.1574
▁85	-11.1576
ura	-11.1577
▁kompliziert	-11.1586
▁encourage	-11.1588
▁ursprünglich	-11.1589
gesellschaftlich	-11.1594
▁Protein	-11.1595
▁Element	-11.1595
▁reich	-11.1596
▁Meeres	-11.1596
lage	-11.1597
▁contract	-11.1598
▁Lu	-11.1604
▁formen	-11.1604
▁bemerken	-11.1604
▁Congress	-11.1604
▁embrace	-11.1604
▁illusion	-11.1604
▁liquid	-11.1604
▁pollution	-11.1604
▁technological	-11.1604
▁darunter	-11.1605
▁Mehrheit	-11.1605
▁internal	-11.1606
▁untersucht	-11.1606
▁gefällt	-11.1606
▁Kenia	-11.1607
▁Women	-11.1608
▁Danach	-11.1608
▁vorzustellen	-11.161
▁boom	-11.161
▁keeping	-11.161
▁Bein	-11.1611
▁movements	-11.1613
volle	-11.1613
▁advanced	-11.1615
▁decline	-11.1616
▁fold	-11.1616
▁versteht	-11.1616
▁presentation	-11.1617
Me	-11.1618
▁Korallen	-11.1619
▁generally	-11.1619
▁Fortschritte	-11.1619
▁Jack	-11.1623
▁Sogar	-11.1624
▁Volk	-11.1628
▁Ozeane	-11.1629
▁Sprach	-11.1631
▁steuern	-11.1633
▁Mama	-11.1634
▁components	-11.1635
▁kosten	-11.1638
▁veränderte	-11.1639
▁Situationen	-11.1654
▁Gib	-11.1656
technologie	-11.1658
▁Depression	-11.1658
▁Fälle	-11.166
▁Ihres	-11.1661
▁arme	-11.1666
▁entscheidend	-11.1667
▁Gegend	-11.1673
▁fishing	-11.1675
▁feelings	-11.1681
stück	-11.169
mark	-11.169
▁armen	-11.1693
▁cameras	-11.1696
▁counter	-11.1696
▁Kein	-11.1697
▁mathematical	-11.1697
▁Entfernung	-11.1703
▁Teenager	-11.1703
▁beteiligt	-11.1703
▁silk	-11.1703
▁staff	-11.1703
▁Other	-11.1703
gruppen	-11.1703
▁kollektive	-11.1705
▁liefern	-11.1705
▁gang	-11.1705
▁gebeten	-11.1707
▁Eric	-11.1708
▁Gesichter	-11.1709
▁typically	-11.171
▁Weltkrieg	-11.171
▁prepared	-11.171
▁Schwierigkeiten	-11.1714
▁fo	-11.1715
▁director	-11.1717
▁Blumen	-11.1718
setzt	-11.1722
▁Wieso	-11.1725
▁Mi	-11.1726
zubringen	-11.1728
▁Wissens	-11.1732
▁atoms	-11.1733
▁cultures	-11.1733
Wow	-11.1737
▁Instrument	-11.1743
▁Signale	-11.1746
▁herein	-11.1752
▁Zivilisation	-11.1757
▁Pat	-11.1759
teilen	-11.1764
▁Brücke	-11.1764
gie	-11.1765
▁Große	-11.1766
▁crash	-11.1769
▁talent	-11.1776
▁mix	-11.1778
▁lokalen	-11.1778
wissenschaftlich	-11.1781
▁symbol	-11.1782
▁selbe	-11.1785
▁replace	-11.1786
folge	-11.1787
Y	-11.1787
▁behaviors	-11.1793
ea	-11.1793
▁organ	-11.1794
▁bauten	-11.1797
▁Ca	-11.1798
▁academic	-11.1802
▁dominant	-11.1802
▁gegründet	-11.1802
▁ruhig	-11.1802
▁Britain	-11.1802
▁primary	-11.1802
▁Stammzellen	-11.1802
▁collaboration	-11.1802
▁Debatte	-11.1802
▁fake	-11.1802
▁nations	-11.1811
sis	-11.1815
▁seltsam	-11.1817
▁König	-11.1819
▁liked	-11.1823
bereich	-11.1824
▁recorded	-11.1826
▁Hall	-11.1831
Pa	-11.1832
▁tradition	-11.1833
▁disaster	-11.1833
▁gefangen	-11.1834
verhalten	-11.1836
▁selling	-11.1838
▁Ford	-11.1838
werte	-11.184
▁quarter	-11.1842
▁Laptop	-11.1843
▁king	-11.1848
ans	-11.1851
▁foundation	-11.1853
uellen	-11.1856
▁Grundlage	-11.186
▁Fabrik	-11.1862
▁erhielt	-11.1865
▁Gore	-11.1867
hy	-11.1868
▁buying	-11.1869
▁rec	-11.1878
zier	-11.188
▁Kar	-11.1884
▁interessanter	-11.1888
▁Stärke	-11.1889
fache	-11.1889
raten	-11.189
▁dinosaurs	-11.1895
▁entgegen	-11.1898
▁Milch	-11.19
▁Echtzeit	-11.1902
▁participate	-11.1902
▁kreieren	-11.1902
▁snow	-11.1902
▁Stattdessen	-11.1902
▁englische	-11.1902
▁birthday	-11.1902
▁Pfund	-11.1902
▁feststellen	-11.1903
wissenschaftler	-11.1904
▁lachen	-11.1904
▁Law	-11.1907
▁Präsentation	-11.1907
▁besuchen	-11.191
hält	-11.1912
▁remain	-11.1913
och	-11.1914
▁seitdem	-11.1916
halt	-11.1918
▁Wild	-11.1921
▁aufnehmen	-11.1935
▁opinion	-11.1936
▁Kr	-11.1938
▁pan	-11.1943
barkeit	-11.1957
▁UN	-11.1958
▁Russia	-11.196
▁Aktivitäten	-11.1961
▁Einstellung	-11.1961
▁senden	-11.1966
▁Null	-11.1968
▁Erwachsenen	-11.1968
eit	-11.1973
▁Überleben	-11.1977
ät	-11.1984
▁Tor	-11.199
▁Satelliten	-11.199
▁depends	-11.1993
handel	-11.1994
▁previous	-11.1997
nimmt	-11.2
▁regions	-11.2002
▁Weltraum	-11.2002
▁phrase	-11.2003
▁definiert	-11.2003
▁Saturn	-11.2003
▁radiation	-11.2003
▁conscious	-11.2004
▁protection	-11.2007
▁Metall	-11.2008
hren	-11.2009
▁Rio	-11.2009
▁sucht	-11.2011
▁Tonnen	-11.2013
▁vehicles	-11.2013
▁5,000	-11.2021
▁Gehen	-11.2022
star	-11.2022
▁tag	-11.2022
▁Fest	-11.2023
▁released	-11.2025
lock	-11.2028
▁naturally	-11.2031
▁stock	-11.2031
▁Statistiken	-11.2033
▁reached	-11.2034
▁cards	-11.2038
▁breathe	-11.2038
Co	-11.2038
▁newspaper	-11.2039
▁score	-11.204
▁Bus	-11.2042
▁Kriegs	-11.2048
▁Handel	-11.2048
▁politicians	-11.2057
▁messages	-11.2057
▁Erfindung	-11.206
▁Küste	-11.2061
▁Bedürfnisse	-11.2062
gh	-11.2062
▁Sitz	-11.2066
▁organs	-11.2072
▁user	-11.2072
▁Time	-11.2073
▁sharks	-11.2075
▁Wall	-11.2076
▁appreciate	-11.2088
▁baute	-11.2091
▁shapes	-11.2096
▁blauen	-11.2102
schließen	-11.2102
▁Führer	-11.2105
▁Stahl	-11.2105
▁activities	-11.2105
▁definitely	-11.2105
▁destruction	-11.2105
▁langweilig	-11.2105
▁manufacturing	-11.2105
▁quasi	-11.2105
▁spectrum	-11.2105
▁Russland	-11.2105
▁malaria	-11.2105
▁framework	-11.2105
▁swim	-11.2105
▁Media	-11.2105
▁evolutionary	-11.2106
▁Sechs	-11.2106
▁Koran	-11.2106
▁Unfall	-11.2109
▁Lego	-11.2109
▁Hotel	-11.2115
▁topic	-11.2117
gle	-11.2118
▁Tra	-11.2119
▁houses	-11.212
▁beschrieben	-11.2121
▁introduced	-11.2124
▁Ten	-11.2125
▁pour	-11.2128
▁meaningful	-11.213
▁Pri	-11.2132
arbeiter	-11.2132
▁seid	-11.2137
▁moderne	-11.2139
▁hierher	-11.2139
▁Fast	-11.2141
▁Unterricht	-11.2145
▁phase	-11.2148
▁Chef	-11.2148
▁maps	-11.2149
▁orbit	-11.2151
▁momentan	-11.2158
▁Entwicklungs	-11.216
struktur	-11.2163
▁Pre	-11.2165
▁factors	-11.2184
ji	-11.2201
▁hero	-11.2202
▁permanent	-11.2202
▁danger	-11.2207
▁Belohnung	-11.2208
▁Gerechtigkeit	-11.2208
▁Persönlichkeit	-11.2208
▁Respekt	-11.2208
▁bietet	-11.2208
▁democratic	-11.2208
▁drill	-11.2208
▁liberal	-11.2208
▁fiction	-11.2208
▁wiederholt	-11.2208
▁Literatur	-11.2208
▁Spektrum	-11.2208
▁LED	-11.2208
▁House	-11.2208
▁medium	-11.2208
▁sunlight	-11.2208
▁Anführer	-11.2208
▁digitalen	-11.2209
▁somewhat	-11.2209
▁Moore	-11.2211
▁Beruf	-11.2214
ified	-11.2215
▁Resultat	-11.2217
let	-11.2217
▁fundamentally	-11.2225
▁geteilt	-11.2231
▁Kontinent	-11.2234
▁kostenlos	-11.2237
▁schw	-11.2241
▁skill	-11.2241
▁former	-11.2245
▁fi	-11.2245
▁traveling	-11.2247
▁survey	-11.2248
▁pair	-11.2249
▁centers	-11.2251
▁falling	-11.2255
▁singen	-11.2255
▁weiterer	-11.2255
▁junger	-11.2256
stoß	-11.2261
▁algorithms	-11.2265
▁Instrumente	-11.2269
▁treten	-11.2273
unt	-11.2276
▁receive	-11.2279
▁Erinnerungen	-11.228
sinn	-11.2281
▁Durchschnitt	-11.2283
▁reflect	-11.2284
▁Wow	-11.2286
▁Willen	-11.2289
ov	-11.2294
▁Berge	-11.2294
▁Schritte	-11.23
ständig	-11.23
▁constant	-11.2307
▁voices	-11.2308
▁command	-11.2309
▁interests	-11.231
▁umgeben	-11.2312
▁Kapitel	-11.2312
▁erweitern	-11.2312
▁privacy	-11.2312
▁scheinbar	-11.2312
▁bicycle	-11.2312
▁sinnvoll	-11.2312
▁Ursprung	-11.2312
▁robust	-11.2312
▁conservation	-11.2312
▁dargestellt	-11.2312
▁doubt	-11.2312
▁occurred	-11.2312
ani	-11.2314
▁Aspekte	-11.2315
▁2011	-11.2315
▁prize	-11.2316
▁Buchstaben	-11.2316
▁terrorism	-11.2317
▁nest	-11.2317
▁reverse	-11.2319
▁mountains	-11.2319
▁11.	-11.232
▁combined	-11.2329
tum	-11.2329
▁Ed	-11.2331
kan	-11.2333
▁zeichnen	-11.2336
▁techniques	-11.2339
▁cave	-11.2345
▁Magie	-11.2345
lf	-11.2349
▁Richtig	-11.2349
▁wirkliche	-11.235
Fi	-11.235
▁institution	-11.2351
▁Damen	-11.2353
▁qu	-11.2355
▁trend	-11.2357
▁note	-11.2358
▁verb	-11.2358
▁mile	-11.236
▁Grafik	-11.2361
▁scan	-11.2368
technik	-11.237
▁Folie	-11.2374
▁Sam	-11.2383
▁Gutes	-11.2385
hal	-11.2386
merk	-11.2388
▁grosse	-11.239
▁schwieriger	-11.2391
▁internationalen	-11.2396
▁al	-11.2397
▁standen	-11.24
lly	-11.2403
fern	-11.2407
▁repeat	-11.2407
ky	-11.2409
▁kontrolliert	-11.2414
▁schwarz	-11.2416
▁seltsame	-11.2416
▁DNS	-11.2417
▁Gemälde	-11.2417
▁Pacific	-11.2417
▁Schicksal	-11.2417
▁cortex	-11.2417
▁Überraschung	-11.2417
▁gespielt	-11.2417
▁psychological	-11.2417
▁Klassenzimmer	-11.2417
▁heisst	-11.2417
▁Deswegen	-11.2417
▁Schließlich	-11.2417
▁hieß	-11.2418
▁reference	-11.2418
bed	-11.2418
▁Kabel	-11.2418
teile	-11.2418
▁passionate	-11.2419
▁pile	-11.2419
▁akzeptieren	-11.2419
▁Serie	-11.242
▁Yet	-11.2421
▁Van	-11.2421
▁Mike	-11.2422
▁apartment	-11.2423
▁Heim	-11.2423
▁hoping	-11.2423
üsse	-11.2425
▁Vorteile	-11.2425
▁route	-11.2427
▁Box	-11.2428
▁Ray	-11.2428
▁Wesentlichen	-11.2428
▁Billionen	-11.2428
▁viruses	-11.2433
▁burning	-11.2434
▁Bildungs	-11.2438
arbeiten	-11.2438
unternehmen	-11.2439
▁beweisen	-11.2441
▁zählt	-11.2441
▁Up	-11.2444
▁bezeichnet	-11.2447
▁bemerkenswert	-11.2449
▁pulled	-11.245
▁largely	-11.2452
macht	-11.2455
mar	-11.2455
▁neighbors	-11.2455
▁talks	-11.2456
▁funktionierte	-11.2459
▁AB	-11.2459
▁diverse	-11.2462
▁details	-11.2462
▁cr	-11.2463
▁root	-11.2463
▁puzzle	-11.2463
▁algorithm	-11.2464
▁Fliegen	-11.2467
chten	-11.2467
▁tea	-11.247
▁River	-11.2471
ette	-11.2477
▁odd	-11.2478
▁anfing	-11.248
maschine	-11.248
▁Interaktion	-11.2483
▁situations	-11.2489
▁suffer	-11.25
▁berühmt	-11.2503
▁Einheit	-11.2503
▁Mengen	-11.2513
▁schwierige	-11.2514
▁monitor	-11.2514
▁Gebiete	-11.2515
▁illness	-11.2516
mine	-11.2519
kam	-11.252
fügen	-11.2521
▁Studio	-11.2523
▁Central	-11.2523
▁Perhaps	-11.2523
▁ansieht	-11.2523
▁beispielsweise	-11.2523
▁smoke	-11.2523
▁afternoon	-11.2524
▁court	-11.2524
▁Brown	-11.2524
▁dropped	-11.2524
▁Wagen	-11.2525
▁Since	-11.2525
▁dahinter	-11.2525
▁hinunter	-11.2525
▁vertrauen	-11.2526
▁Nutzung	-11.2527
▁3,000	-11.2527
▁Transport	-11.2527
▁Geburtstag	-11.2528
▁animation	-11.2531
ix	-11.2531
▁übernehmen	-11.254
▁cooking	-11.254
▁Mc	-11.254
▁section	-11.254
▁pilot	-11.2544
▁schlug	-11.2544
isierte	-11.2548
▁Rad	-11.255
▁tax	-11.2554
▁risks	-11.256
gruppe	-11.2562
lai	-11.2564
▁ho	-11.2569
▁laptop	-11.2571
▁desk	-11.2579
▁Com	-11.2581
▁blog	-11.2585
▁Lektion	-11.2587
▁dogs	-11.2589
▁realen	-11.259
▁fund	-11.2594
grund	-11.2594
▁arts	-11.2597
sie	-11.2601
kü	-11.2602
zieh	-11.2602
▁mark	-11.2603
▁Symbol	-11.2603
▁offene	-11.2608
rei	-11.2609
▁grundlegend	-11.2611
haltung	-11.2615
▁collapse	-11.2616
▁grünen	-11.2616
▁maintain	-11.2617
▁wirkt	-11.2623
▁grab	-11.2626
sichtlich	-11.2629
▁Vietnam	-11.2629
▁FBI	-11.2631
▁Taliban	-11.2631
▁Unfortunately	-11.2631
▁church	-11.2631
▁concrete	-11.2631
▁entfernen	-11.2631
▁eröffnet	-11.2631
▁false	-11.2631
▁silence	-11.2631
▁sophisticated	-11.2631
▁verfolgt	-11.2631
▁shame	-11.2631
▁industrielle	-11.2631
▁mechanical	-11.2631
▁besitzt	-11.2631
▁ought	-11.2631
▁Frankreich	-11.2631
▁Blatt	-11.2631
▁chapter	-11.2631
▁thick	-11.2632
▁Verbrechen	-11.2632
gy	-11.2636
▁Analyse	-11.2637
▁input	-11.2638
▁infiziert	-11.2639
▁Back	-11.264
▁equally	-11.264
20	-11.2641
oren	-11.2643
▁affected	-11.2651
▁physically	-11.2653
▁dieselben	-11.2657
eten	-11.2659
▁gefallen	-11.266
▁blau	-11.2661
▁hängen	-11.2662
▁aging	-11.2664
▁ends	-11.2667
▁Wüste	-11.267
▁increased	-11.267
Dollar	-11.2672
lies	-11.2674
▁upper	-11.2675
▁Ju	-11.2677
▁occur	-11.268
kom	-11.2684
▁review	-11.2684
treffen	-11.2685
▁Th	-11.2689
▁Kirche	-11.2693
▁Nase	-11.2694
▁Absicht	-11.2697
▁bekomme	-11.2704
10	-11.2705
forschung	-11.2719
▁kalt	-11.272
chan	-11.2721
▁suppose	-11.2725
▁provid	-11.2727
▁environments	-11.2731
▁abstract	-11.2734
ome	-11.2735
▁ultimate	-11.2737
app	-11.2738
▁Titan	-11.2738
▁comfort	-11.2739
▁Blätter	-11.274
▁explanation	-11.274
▁lecture	-11.274
▁license	-11.274
▁regelmäßig	-11.274
▁verschwunden	-11.274
▁presence	-11.274
▁Sonnenlicht	-11.274
▁Zunächst	-11.274
▁Nobody	-11.274
▁verletzt	-11.274
▁underwater	-11.274
▁June	-11.2741
▁Nachbarschaft	-11.2741
gefühl	-11.2742
▁awareness	-11.2742
▁lying	-11.2744
▁ta	-11.2744
▁alien	-11.2744
mäßig	-11.2746
▁löst	-11.2746
▁Frei	-11.2747
▁remove	-11.2748
▁froh	-11.2749
▁kriegen	-11.2751
▁Sir	-11.2757
Man	-11.2757
▁langer	-11.2763
▁records	-11.2764
don	-11.2764
▁überlegen	-11.2766
▁singing	-11.2767
▁angenommen	-11.2771
▁wechseln	-11.2772
▁Innovationen	-11.2773
▁Todes	-11.2774
▁sc	-11.278
▁nachts	-11.278
fällt	-11.2781
▁Stern	-11.2782
▁organisiert	-11.2783
ice	-11.2792
▁tumor	-11.2792
▁error	-11.2793
cal	-11.2793
▁solved	-11.2798
▁29	-11.2799
▁golden	-11.2801
bas	-11.2801
▁winzig	-11.2802
▁umher	-11.2806
iß	-11.2808
▁Aktion	-11.2811
tten	-11.2811
▁grass	-11.2812
▁Wellen	-11.2813
▁poll	-11.282
▁Gedächtnis	-11.2823
▁lebendig	-11.283
▁emerge	-11.2834
▁eggs	-11.2834
▁hyper	-11.2836
▁mögliche	-11.2842
rig	-11.2844
▁mistakes	-11.2844
▁manchen	-11.2846
ham	-11.2847
▁Bibliothek	-11.2849
▁August	-11.285
▁While	-11.285
▁contrast	-11.285
▁department	-11.285
▁literature	-11.285
▁piano	-11.285
▁Something	-11.285
▁vorbereitet	-11.285
▁erhöhen	-11.285
▁sphere	-11.285
▁flexible	-11.285
▁Jesus	-11.285
▁milk	-11.285
▁balloon	-11.285
▁Decke	-11.285
▁Space	-11.285
▁Brief	-11.285
▁Prinzipien	-11.2851
▁transportation	-11.2851
ably	-11.2852
▁actions	-11.2852
▁exhibition	-11.2853
▁combine	-11.2854
▁Abfall	-11.2854
▁Mess	-11.2855
▁Long	-11.2856
▁Schlag	-11.2857
▁Ohne	-11.2857
▁violent	-11.2859
▁Blue	-11.286
▁Geräusche	-11.286
▁aufgewachsen	-11.286
gelegt	-11.2861
▁1000	-11.2861
▁Erd	-11.2862
▁bezeichnen	-11.2862
▁percentage	-11.2864
▁Proteine	-11.2866
▁potentially	-11.2867
▁Fett	-11.2869
▁behaupten	-11.2877
lass	-11.2878
ign	-11.2878
▁nachhaltige	-11.2879
▁willst	-11.2886
System	-11.2893
genommen	-11.2899
nis	-11.2901
▁Hallo	-11.2902
▁feature	-11.2906
▁clock	-11.2906
ala	-11.2916
▁chose	-11.2918
▁Samen	-11.2919
▁Metapher	-11.2922
▁intuitive	-11.2923
down	-11.2926
▁Webseite	-11.2927
making	-11.2928
▁Vo	-11.2937
▁celebrate	-11.2946
▁Vorstellungen	-11.2952
▁lift	-11.2952
cor	-11.2953
▁wundervolle	-11.2957
führung	-11.296
▁admit	-11.2961
▁Fokus	-11.2961
▁Gandhi	-11.2961
▁Inspiration	-11.2961
▁humor	-11.2961
▁telephone	-11.2961
▁überlebt	-11.2961
▁ausgebildet	-11.2961
▁kitchen	-11.2961
▁toxic	-11.2962
▁authority	-11.2962
▁cents	-11.2962
▁wofür	-11.2963
▁paradigm	-11.2964
▁hotel	-11.2964
▁Come	-11.2965
▁Kongress	-11.2967
▁overall	-11.2971
▁geschlossen	-11.2975
▁wunderschöne	-11.2976
life	-11.2977
▁worauf	-11.298
▁required	-11.298
▁fährt	-11.2981
▁tracking	-11.2989
▁personally	-11.2989
▁drücken	-11.2991
▁jener	-11.2993
▁handle	-11.2997
▁reisen	-11.2998
▁baut	-11.2998
▁Gute	-11.3
▁Hacker	-11.3003
▁derzeit	-11.3006
gekommen	-11.3009
▁operation	-11.3012
▁Komm	-11.3012
tragen	-11.3012
▁acting	-11.3014
▁bare	-11.3014
▁narrative	-11.3018
▁Detail	-11.302
▁Momente	-11.3022
▁langsamer	-11.3028
▁Mitglieder	-11.303
▁Annahme	-11.3031
▁bits	-11.3031
▁chemische	-11.3032
▁erhöht	-11.3033
zunehmen	-11.3034
▁fewer	-11.3034
▁verstand	-11.3036
nce	-11.3037
unk	-11.3038
uff	-11.3041
▁entrepreneurs	-11.3045
▁translate	-11.3058
▁Arme	-11.3059
▁Tri	-11.3064
problem	-11.307
All	-11.3071
▁Ereignis	-11.3071
▁Su	-11.3072
▁shall	-11.3073
▁Nachhaltigkeit	-11.3073
▁horrible	-11.3073
▁unusual	-11.3073
▁Alexander	-11.3073
▁laboratory	-11.3073
▁psychology	-11.3073
▁trinken	-11.3073
▁britische	-11.3073
▁behave	-11.3073
▁fruit	-11.3073
▁hunger	-11.3073
▁Latin	-11.3074
▁wireless	-11.3074
▁Dafür	-11.3074
▁unknown	-11.3074
▁deserve	-11.3075
▁Johnson	-11.3075
▁2050	-11.3077
▁productive	-11.3077
▁exploration	-11.3077
▁Budget	-11.3077
▁getrennt	-11.3077
see	-11.3081
▁individuelle	-11.3082
▁100.000	-11.3083
▁infected	-11.3083
▁MT	-11.3083
▁Schaden	-11.3083
sfähigkeit	-11.3085
▁Schuhe	-11.309
▁großartigen	-11.309
▁Mai	-11.3092
▁electronic	-11.3098
▁processing	-11.3098
▁Einzel	-11.31
▁musical	-11.3112
▁weiße	-11.3112
▁Atom	-11.3113
▁zeigten	-11.3117
Yeah	-11.3119
ellen	-11.3121
bildung	-11.3121
▁van	-11.3122
▁Marke	-11.3125
▁Geistes	-11.3129
▁features	-11.3129
▁videos	-11.313
▁nose	-11.3134
▁falschen	-11.3137
▁Schicht	-11.3143
▁Fläche	-11.3143
▁Räume	-11.3143
▁hadn	-11.3144
▁Führung	-11.3148
schauen	-11.315
▁blocks	-11.3153
▁Get	-11.3155
▁hörten	-11.3157
▁Erlebnis	-11.3158
▁Kindes	-11.3159
▁führten	-11.3159
reichen	-11.3164
elle	-11.3166
bit	-11.3169
▁clinic	-11.3169
▁traurig	-11.3173
lte	-11.3174
▁extend	-11.3177
▁samples	-11.3177
linie	-11.3179
▁accurate	-11.3181
zeichen	-11.3184
istische	-11.3187
mus	-11.3187
▁Kanada	-11.3187
▁efficiency	-11.3187
▁irgendjemand	-11.3187
▁shadow	-11.3187
lauf	-11.3187
▁sustainability	-11.3187
▁Population	-11.3187
▁Saudi	-11.3187
▁Terrorismus	-11.3187
▁Kugel	-11.3187
▁greenhouse	-11.3187
▁Solar	-11.3187
▁Anstatt	-11.3188
▁erneut	-11.3188
▁hinterlassen	-11.3188
▁teilweise	-11.3188
▁Bevor	-11.319
▁clothes	-11.319
▁bemerkte	-11.3193
▁durchführen	-11.3194
schein	-11.3194
▁busy	-11.3196
▁klinische	-11.3198
▁zusätzliche	-11.3198
▁script	-11.3198
▁Heimat	-11.3199
nderungen	-11.3201
spect	-11.3202
▁collected	-11.3203
▁springen	-11.3207
▁wachsende	-11.3209
▁controlled	-11.321
anten	-11.321
▁Only	-11.3212
sein	-11.3212
▁ski	-11.3216
▁trafen	-11.3217
▁aktuelle	-11.3219
▁unglaublichen	-11.3224
▁tonight	-11.3225
▁feeding	-11.3225
▁document	-11.3225
▁genetisch	-11.3233
▁Bur	-11.3234
house	-11.3236
▁lebe	-11.3237
▁claim	-11.3239
▁proteins	-11.3239
▁stronger	-11.3242
▁driven	-11.3243
losen	-11.3249
▁string	-11.3251
▁Hat	-11.3252
▁hey	-11.3253
▁Dem	-11.3255
▁primitive	-11.3255
bewegung	-11.3257
▁tall	-11.3258
▁border	-11.3258
wärts	-11.3258
▁Weiter	-11.3261
ration	-11.3262
▁begrenzt	-11.3262
▁Gemeinschaften	-11.3264
lam	-11.327
▁Regionen	-11.3279
▁Konsum	-11.3283
lit	-11.3286
gas	-11.3287
My	-11.3287
▁succeed	-11.3292
▁convert	-11.3292
▁Christmas	-11.3302
▁Research	-11.3302
▁advice	-11.3302
▁computing	-11.3302
▁erforscht	-11.3302
▁gravity	-11.3302
▁nachgedacht	-11.3302
▁nervös	-11.3302
▁housing	-11.3302
▁Grippe	-11.3302
▁meinte	-11.3302
▁cord	-11.3303
▁songs	-11.3303
ica	-11.3303
▁worldwide	-11.3307
▁appropriate	-11.3311
▁ausgesetzt	-11.3312
▁19.	-11.3312
▁beibringen	-11.3314
▁Party	-11.3315
▁schwarzen	-11.3315
▁Zur	-11.3317
prozess	-11.3318
pot	-11.332
▁sports	-11.3321
▁solange	-11.3322
▁sowas	-11.3324
▁lock	-11.3326
▁attacks	-11.3328
rand	-11.333
typ	-11.3331
▁End	-11.3335
▁emotionale	-11.3337
▁glaubte	-11.3337
▁mode	-11.3338
▁basierend	-11.334
▁stayed	-11.334
▁recording	-11.3343
▁explained	-11.3344
put	-11.3345
▁Armee	-11.335
▁symptoms	-11.3352
▁Sta	-11.3353
▁fehlt	-11.3357
▁puts	-11.336
▁Maß	-11.3362
▁Live	-11.3363
▁bestand	-11.3364
foot	-11.3366
▁gewisser	-11.3366
▁determine	-11.3366
▁monkey	-11.3368
▁hinauf	-11.337
steigen	-11.3371
▁roads	-11.3374
wan	-11.3374
▁Mach	-11.3377
▁forests	-11.3378
▁Inter	-11.3384
▁wirken	-11.3384
bücher	-11.3386
▁Programme	-11.3392
▁thanks	-11.3397
person	-11.3398
▁gr	-11.3399
ifi	-11.34
sprache	-11.3405
▁drives	-11.3408
▁gelangt	-11.3409
gram	-11.3411
gypten	-11.3413
▁infinite	-11.3413
q	-11.3413
▁favor	-11.3417
politik	-11.3417
▁dramatic	-11.3418
▁Teufel	-11.3418
▁centuries	-11.3418
▁memories	-11.3418
▁thumb	-11.3418
▁swimming	-11.3418
▁Schweden	-11.3418
▁consistent	-11.3418
▁intervention	-11.3418
▁organisieren	-11.3418
▁Kleidung	-11.3418
▁exakt	-11.3419
▁flach	-11.3419
▁Verstehen	-11.3419
▁liefert	-11.3419
▁download	-11.342
▁Streit	-11.3421
▁Minister	-11.3423
▁surrounded	-11.3423
▁Zauber	-11.3423
▁Te	-11.3424
▁europäische	-11.3424
▁Asien	-11.3424
▁Howard	-11.3425
▁robotic	-11.3426
RB	-11.3427
▁unterrichten	-11.3429
▁bug	-11.3433
▁transplant	-11.3433
ass	-11.3434
▁sensitive	-11.3437
▁transformed	-11.3437
▁breathing	-11.3438
▁zweimal	-11.3438
▁Wolken	-11.3441
▁linked	-11.3444
▁männliche	-11.3448
▁host	-11.3448
▁Matt	-11.3449
▁closely	-11.3452
▁Taschen	-11.3452
egel	-11.3457
▁protected	-11.3459
▁Bord	-11.3466
▁measured	-11.3467
hören	-11.3468
▁tested	-11.3471
fan	-11.3472
▁flip	-11.3473
▁rum	-11.3475
▁Versuche	-11.348
my	-11.3485
▁election	-11.3487
▁Ereignisse	-11.3493
▁Cl	-11.3494
▁sides	-11.3495
▁studiert	-11.3495
▁winzige	-11.3496
▁author	-11.3497
schlagen	-11.35
▁antwortete	-11.3502
▁spin	-11.3503
▁gesch	-11.3505
▁weltweiten	-11.3508
▁facts	-11.3512
▁shock	-11.3512
▁organism	-11.3513
bezüglich	-11.3516
gebiet	-11.3526
▁i	-11.3526
▁Port	-11.3528
sätze	-11.3531
▁arguments	-11.3532
▁Tim	-11.3533
▁zufrieden	-11.3534
geschwindigkeit	-11.3536
▁gekauft	-11.3536
▁genügend	-11.3536
▁trigger	-11.3536
▁veröffentlichen	-11.3536
▁Square	-11.3536
▁Schnee	-11.3536
▁Verbreitung	-11.3536
▁anpassen	-11.3536
▁Finally	-11.3537
▁stoppen	-11.3537
▁shut	-11.3537
▁Mio	-11.3541
▁verglichen	-11.3544
▁William	-11.3545
▁Nerven	-11.3549
▁Boy	-11.3549
▁log	-11.355
▁Elefanten	-11.355
▁wiederholen	-11.3556
▁database	-11.356
▁Wohn	-11.356
▁minister	-11.356
▁Wann	-11.356
▁circumstances	-11.3561
tieren	-11.3569
ktion	-11.3569
▁heiß	-11.3572
▁pin	-11.3573
▁Ei	-11.3575
▁Trick	-11.3579
▁Gottes	-11.3585
treten	-11.3587
▁Aufnahmen	-11.3591
▁ancestors	-11.3591
hour	-11.3595
▁gesunde	-11.36
gar	-11.3602
tür	-11.3604
tail	-11.3606
bank	-11.3607
▁mechanism	-11.3607
▁starben	-11.3608
▁insight	-11.361
▁remains	-11.3613
üge	-11.3617
▁Restaurant	-11.3618
nar	-11.3619
Pro	-11.3625
erin	-11.3629
▁Jahrzehnten	-11.3635
▁Blau	-11.3639
▁innen	-11.3641
scha	-11.3644
baren	-11.3644
not	-11.3646
▁wertvoll	-11.3652
größe	-11.3653
▁Four	-11.3655
▁Bruno	-11.3655
▁DVD	-11.3655
▁empathy	-11.3655
▁motivation	-11.3655
▁policies	-11.3655
▁regret	-11.3655
▁wütend	-11.3655
▁finance	-11.3655
▁globe	-11.3655
▁vorsichtig	-11.3655
▁Potenzial	-11.3655
▁gestaltet	-11.3655
▁repair	-11.3655
▁intense	-11.3655
▁flew	-11.3655
▁gentlemen	-11.3655
▁strip	-11.3655
▁Verkauf	-11.3655
▁Chancen	-11.3655
▁ewig	-11.3655
▁Knie	-11.3656
▁Stücke	-11.3656
▁lifestyle	-11.3657
▁wünschte	-11.3657
▁Flügel	-11.3657
▁genießen	-11.3658
▁ka	-11.3658
▁Männchen	-11.3658
▁Erste	-11.366
▁formed	-11.3661
▁Reich	-11.3664
▁bewirken	-11.3665
▁dumm	-11.3665
uadrat	-11.3665
▁Muslims	-11.3666
▁apple	-11.3671
air	-11.3672
olo	-11.3674
▁Five	-11.3676
▁Schauspieler	-11.3679
▁Ernährung	-11.368
▁ear	-11.3681
▁investiert	-11.3682
ände	-11.3684
lief	-11.3688
▁Haar	-11.3689
▁painful	-11.3696
grade	-11.3697
▁existing	-11.3698
kreis	-11.3701
▁traditionelle	-11.3702
▁Noten	-11.3705
enz	-11.3706
▁zunehmend	-11.3711
▁photographs	-11.3711
▁wherever	-11.3714
▁grün	-11.3716
ark	-11.3717
But	-11.3717
▁Eier	-11.372
▁cartoon	-11.3722
▁schwere	-11.3723
Wer	-11.3724
▁outcome	-11.373
▁creature	-11.373
▁Märkte	-11.3732
ase	-11.374
Na	-11.3741
▁hielten	-11.3741
▁dauerte	-11.3743
▁Hans	-11.3743
▁Handys	-11.3745
▁profit	-11.3752
To	-11.3754
▁versteckt	-11.3754
▁harte	-11.3755
▁bekannten	-11.3759
▁firm	-11.376
▁contribute	-11.376
einander	-11.376
▁magnetic	-11.3765
▁ten	-11.3769
schutz	-11.3772
▁Jahrzehnte	-11.3775
▁Algorithmen	-11.3775
▁Diagnose	-11.3775
▁Zerstörung	-11.3775
▁begegnen	-11.3775
▁geholfen	-11.3775
▁narrow	-11.3775
▁recognition	-11.3775
▁silent	-11.3775
▁visible	-11.3775
▁Mandela	-11.3775
▁suspect	-11.3775
▁footprint	-11.3775
▁Voice	-11.3775
▁hinzufügen	-11.3775
▁ill	-11.3775
▁weshalb	-11.3775
▁Herstellung	-11.3776
▁verliebt	-11.3776
▁Chaos	-11.3776
▁Verwendung	-11.3777
▁Sonnensystem	-11.3778
▁Egypt	-11.378
▁2:	-11.378
▁Status	-11.3781
▁erklärte	-11.3782
▁Business	-11.3783
▁Rechts	-11.3784
▁cup	-11.3785
▁nieder	-11.3786
ebene	-11.3786
▁berichten	-11.3789
▁Regierungs	-11.3789
▁stieg	-11.379
▁Wirklich	-11.3792
▁jail	-11.3792
stellt	-11.3795
▁Hunderte	-11.3798
▁billig	-11.3802
▁55	-11.3803
▁style	-11.3804
▁Toten	-11.3806
being	-11.3806
▁pushing	-11.3809
▁guide	-11.381
▁storm	-11.381
▁evening	-11.3811
isches	-11.3812
nach	-11.3813
▁applications	-11.3815
▁Fernseh	-11.3819
punkte	-11.3819
▁para	-11.3819
▁Staats	-11.3827
ita	-11.3828
wind	-11.3839
▁Anders	-11.3844
▁figures	-11.3845
kte	-11.3846
bie	-11.3847
▁besseres	-11.3849
▁architect	-11.3853
▁höchsten	-11.3853
▁spider	-11.3853
▁bildet	-11.3853
▁neighbor	-11.3853
▁Aussage	-11.3854
oid	-11.3856
▁refer	-11.3856
zo	-11.3857
ziel	-11.386
dge	-11.3865
▁wheel	-11.3866
▁amounts	-11.3867
einheit	-11.3868
▁Spielzeug	-11.3868
▁instruments	-11.3871
▁lebende	-11.3873
▁runs	-11.3873
▁trug	-11.3879
▁erkannt	-11.3881
▁Cal	-11.3883
▁Einen	-11.3895
▁stone	-11.3896
▁plot	-11.3897
▁Nelson	-11.3897
▁Number	-11.3897
▁corporate	-11.3897
▁gesammelt	-11.3897
▁neugierig	-11.3897
▁unmittelbar	-11.3897
▁brutal	-11.3897
▁overcome	-11.3897
▁Normalerweise	-11.3897
▁zone	-11.3898
▁gray	-11.3898
▁komplexen	-11.3899
▁thoughts	-11.39
▁Denkweise	-11.39
▁Aufbau	-11.3901
▁Kongo	-11.3902
▁betreiben	-11.3902
▁Sonnen	-11.3904
▁Mary	-11.3907
▁folgendes	-11.3909
▁betrieben	-11.3909
▁36	-11.391
▁ok	-11.3912
▁applied	-11.3915
heben	-11.3916
▁ergeben	-11.3917
artige	-11.392
▁gebrochen	-11.393
▁afrikanischen	-11.3932
▁defined	-11.3932
▁flowers	-11.3933
▁hits	-11.3934
▁Leiden	-11.3934
▁Naja	-11.3934
▁Ohren	-11.3936
denken	-11.3937
zwischen	-11.394
ee	-11.3941
▁architects	-11.3941
▁Male	-11.3947
▁physische	-11.3955
▁keeps	-11.3964
▁concern	-11.3968
▁educational	-11.3968
▁Paar	-11.3971
uf	-11.3971
▁heutige	-11.3978
▁wa	-11.398
▁innere	-11.3984
▁Witz	-11.3986
▁landen	-11.3987
▁limits	-11.3989
▁economists	-11.399
▁destroy	-11.3997
▁seek	-11.3997
▁schreckliche	-11.3998
▁nett	-11.4
▁kreative	-11.4002
▁senses	-11.4004
▁regional	-11.4007
▁react	-11.4009
▁fingen	-11.4014
▁Geschäfte	-11.4019
▁Ingenieure	-11.4019
▁spiritual	-11.402
▁Beijing	-11.4021
▁Bronx	-11.4021
▁Fantasie	-11.4021
▁Feynman	-11.4021
▁Lebenserwartung	-11.4021
▁Motivation	-11.4021
▁aufgeregt	-11.4021
▁depth	-11.4021
▁konfrontiert	-11.4021
▁measuring	-11.4021
▁struck	-11.4021
▁obesity	-11.4021
▁autism	-11.4021
▁seht	-11.4021
▁BIP	-11.4021
▁fluid	-11.4022
▁Grab	-11.4022
▁2030	-11.4022
▁Anruf	-11.4022
▁Verfahren	-11.4023
▁Fo	-11.4024
▁escape	-11.4026
▁Afrikaner	-11.4026
▁Before	-11.4027
▁2002	-11.4028
▁Nano	-11.4029
▁Fund	-11.4029
▁behavioral	-11.4031
▁notes	-11.4031
ktor	-11.4032
ake	-11.4033
▁partners	-11.4036
▁Einfach	-11.4039
▁2004	-11.404
versorgung	-11.4041
▁rocks	-11.4041
▁Sternen	-11.4042
▁ernsthaft	-11.4043
▁chip	-11.4045
▁classes	-11.4049
▁boxes	-11.4054
sort	-11.4054
ille	-11.4055
▁bones	-11.4059
▁Sub	-11.4062
▁Innen	-11.4063
▁Tee	-11.4066
uss	-11.4066
▁functions	-11.4072
▁Denk	-11.4072
▁komplizierte	-11.4073
▁Verb	-11.4077
han	-11.4077
ward	-11.4081
stelle	-11.4082
▁wach	-11.4094
class	-11.4095
▁Afrikas	-11.4095
▁enden	-11.4099
▁logisch	-11.4102
▁prototype	-11.4103
far	-11.4104
▁application	-11.4104
▁logic	-11.4111
▁Symptome	-11.4113
0,000	-11.4115
atom	-11.4121
nderung	-11.4121
▁gemeinsamen	-11.4124
hop	-11.4125
ssen	-11.4125
▁divide	-11.413
▁mach	-11.4132
▁abuse	-11.414
▁careful	-11.4145
▁polar	-11.4145
▁increases	-11.4145
▁Heutzutage	-11.4146
▁Plötzlich	-11.4146
▁clue	-11.4146
▁insbesondere	-11.4146
▁judgment	-11.4146
▁kaputt	-11.4146
▁romantic	-11.4146
▁trace	-11.4146
▁Entwurf	-11.4146
▁wisst	-11.4146
▁automatically	-11.4146
▁Futter	-11.4146
▁nowhere	-11.4146
▁resistance	-11.4146
schütte	-11.4147
▁interactive	-11.4148
▁Geo	-11.4148
▁elektronische	-11.4149
▁shell	-11.4152
▁dankbar	-11.4154
▁destroyed	-11.4155
▁confidence	-11.4157
▁offenbar	-11.416
▁vergangenen	-11.4164
▁pitch	-11.4164
▁ursprüngliche	-11.4166
▁fixed	-11.4171
▁Tiefe	-11.4173
▁x	-11.4175
fish	-11.4176
▁beenden	-11.418
▁nor	-11.4182
▁offenen	-11.4183
▁interactions	-11.4185
▁outcomes	-11.4193
▁Au	-11.4194
▁Dis	-11.4195
essen	-11.4195
▁pe	-11.4195
▁Acht	-11.4197
▁laser	-11.4199
▁achten	-11.42
arch	-11.4203
▁dense	-11.4204
▁Ski	-11.4211
▁penguins	-11.4213
▁nannten	-11.4215
▁Entdeckungen	-11.4219
▁Kurve	-11.4229
▁surgeon	-11.4232
▁mammals	-11.4232
▁Kal	-11.4232
▁truck	-11.4233
▁component	-11.4233
▁pig	-11.4237
▁lung	-11.4242
▁einst	-11.4243
▁Such	-11.4245
▁derselben	-11.4245
▁broad	-11.4249
▁frühe	-11.425
▁suggests	-11.4254
ew	-11.4254
▁Schnitt	-11.4257
▁invite	-11.4258
▁Physiker	-11.4261
▁sum	-11.4261
▁Jugend	-11.4262
▁Bericht	-11.4263
▁Reaktionen	-11.4265
▁photographer	-11.4266
pping	-11.4267
▁pet	-11.4269
▁dramatisch	-11.4269
schluss	-11.427
▁Versorgung	-11.4272
figur	-11.4272
▁Abraham	-11.4272
▁Detroit	-11.4272
▁diagram	-11.4272
▁economies	-11.4272
▁secure	-11.4272
▁Silicon	-11.4272
▁library	-11.4272
▁versorgen	-11.4272
▁grateful	-11.4272
▁indicate	-11.4272
▁engaging	-11.4272
▁Gulf	-11.4272
▁neural	-11.4272
▁merken	-11.4273
▁unlike	-11.4273
▁boring	-11.4273
▁Marketing	-11.4273
▁Brian	-11.4273
▁Strand	-11.4273
▁unterwegs	-11.4273
▁enthalten	-11.4273
ju	-11.4273
▁heilen	-11.4274
▁Lincoln	-11.4275
▁Nachfrage	-11.4275
▁rapid	-11.4276
▁conversations	-11.4278
ami	-11.4283
▁brach	-11.4284
▁solving	-11.4287
▁shooting	-11.4292
▁represented	-11.4292
▁verschieden	-11.4295
▁Gebäuden	-11.4301
▁whales	-11.4301
iges	-11.4302
▁rhythm	-11.4304
ook	-11.4308
▁schauten	-11.4309
das	-11.431
team	-11.4311
▁saubere	-11.4311
▁Lehr	-11.4314
▁villages	-11.4314
▁hospitals	-11.4317
zugeben	-11.4322
zustellen	-11.4324
▁savings	-11.4326
gegen	-11.433
▁Chinesen	-11.4335
▁file	-11.4339
spieler	-11.4341
▁aspect	-11.4343
box	-11.4347
gemacht	-11.4347
ef	-11.4348
▁optimistic	-11.4352
▁biologischen	-11.4353
schule	-11.4356
glücklicherweise	-11.4361
▁disorder	-11.4362
▁tube	-11.4369
aff	-11.437
▁Sal	-11.4373
▁Wach	-11.4373
▁30-	-11.4375
▁kaufte	-11.4377
leiter	-11.4378
▁Mode	-11.438
▁Pferd	-11.4384
▁attract	-11.4389
▁tro	-11.4389
▁options	-11.439
▁dress	-11.4391
▁verrückte	-11.4391
▁teil	-11.4394
▁legt	-11.4395
▁evolve	-11.4397
▁schwimmen	-11.4397
▁Gemüse	-11.44
▁Klavier	-11.44
▁Zweifel	-11.44
▁verursachen	-11.44
▁Verlangen	-11.44
▁carried	-11.44
▁conclude	-11.44
▁Italien	-11.44
▁mystery	-11.44
▁Redwood	-11.44
▁minimal	-11.4401
▁Basically	-11.4401
▁dramatically	-11.4401
▁rufen	-11.4401
▁knapp	-11.4401
▁selection	-11.4401
▁commitment	-11.4402
tier	-11.4402
▁capitalism	-11.4402
nnerhalb	-11.4402
▁stake	-11.4402
▁Darüber	-11.4404
▁January	-11.4405
▁vertical	-11.4406
hafte	-11.4406
▁optimistisch	-11.4411
▁Videospiele	-11.4412
▁Zeitraum	-11.4412
▁SW	-11.4412
▁Bang	-11.4413
▁sta	-11.4413
▁Tony	-11.4414
▁2.	-11.4417
▁Konsequenzen	-11.4417
▁su	-11.4418
▁Wäre	-11.4419
▁Sweden	-11.4419
version	-11.442
▁army	-11.4422
▁reported	-11.4423
▁atmen	-11.4423
▁ausgeben	-11.4424
▁37	-11.4425
▁elegant	-11.4425
▁joined	-11.4425
iest	-11.4426
▁vierte	-11.4429
dding	-11.4431
▁wondered	-11.4431
▁anger	-11.4433
▁Presse	-11.4434
ford	-11.4437
rry	-11.4437
▁disorders	-11.4438
ou	-11.4438
▁350	-11.4446
▁performing	-11.4447
▁clouds	-11.4451
state	-11.4457
▁Cr	-11.4458
▁Andrew	-11.4458
las	-11.4464
▁Song	-11.4473
▁kreativ	-11.4474
▁Erwachsene	-11.4475
dienst	-11.4476
kor	-11.4479
▁passive	-11.4481
▁42	-11.4483
▁Richtige	-11.4484
▁Ausnahme	-11.4488
oma	-11.4488
mun	-11.4488
schrei	-11.449
▁positiv	-11.4493
▁heiße	-11.4493
▁equation	-11.4493
fragen	-11.4494
▁prefer	-11.4497
▁Blog	-11.4499
▁Put	-11.4505
kin	-11.4508
▁cry	-11.451
▁limb	-11.4511
▁jung	-11.4513
▁loud	-11.4513
▁Organe	-11.4514
▁habitat	-11.4521
▁weißen	-11.4522
▁Schl	-11.4523
füll	-11.4523
▁severe	-11.4525
▁Januar	-11.4525
▁Child	-11.453
▁Angebot	-11.453
▁Anstieg	-11.453
▁Benjamin	-11.453
▁Kevin	-11.453
▁Shanghai	-11.453
▁chocolate	-11.453
▁earthquake	-11.453
▁furniture	-11.453
▁gerettet	-11.453
▁irgendwelche	-11.453
▁session	-11.453
▁Berlin	-11.453
▁Einwohner	-11.453
▁geschützt	-11.453
▁frog	-11.453
▁neither	-11.453
▁heaven	-11.453
▁Gleichgewicht	-11.453
▁Gipfel	-11.453
▁bekämpfen	-11.453
▁Brustkrebs	-11.453
▁Dunkelheit	-11.453
▁Wärme	-11.453
▁immense	-11.453
▁sweat	-11.453
▁cooperation	-11.453
▁erfüllen	-11.453
▁reduction	-11.4531
▁besessen	-11.4531
▁Congo	-11.4531
▁vital	-11.4531
▁Everyone	-11.4531
ville	-11.4532
▁Chile	-11.4532
reißen	-11.4532
▁Umgang	-11.4532
▁Nobel	-11.4533
▁Uns	-11.4535
▁Pop	-11.4535
▁schreibt	-11.4535
▁Vagina	-11.4536
▁distributed	-11.4537
▁transfer	-11.4537
▁beendet	-11.4538
▁Delhi	-11.4539
▁suchte	-11.4541
▁load	-11.4542
ments	-11.4542
▁appeared	-11.4544
▁bedeutete	-11.4544
▁sexuelle	-11.4547
▁begreifen	-11.4548
▁funding	-11.4549
▁Epidemie	-11.4551
▁contain	-11.456
▁standards	-11.4561
▁glücklicher	-11.4563
▁voneinander	-11.4565
▁implications	-11.4567
erei	-11.457
▁Fahrzeug	-11.457
▁pool	-11.4571
trieb	-11.4582
▁Russian	-11.4586
fully	-11.4588
▁Gespräche	-11.4588
American	-11.4594
ney	-11.4598
▁immune	-11.4599
▁poet	-11.46
▁brave	-11.46
gestellt	-11.4601
▁cm	-11.4608
▁einfaches	-11.4609
▁estimate	-11.4612
deck	-11.4612
▁unteren	-11.4614
▁origin	-11.4615
▁höchste	-11.4618
ush	-11.4623
▁Plattform	-11.4625
▁Hör	-11.4626
▁vaccine	-11.4626
▁pocket	-11.4627
▁channel	-11.4627
▁expert	-11.4627
▁technique	-11.4628
▁classic	-11.463
▁reveal	-11.4638
▁mathematische	-11.4642
▁earn	-11.4645
▁rescue	-11.4647
blick	-11.4647
▁harvest	-11.4648
▁besuchte	-11.4649
▁gesunden	-11.4651
teressanterweise	-11.466
▁glaubten	-11.4661
ification	-11.4661
▁Kredit	-11.4661
▁Diabetes	-11.4662
▁Erdbeben	-11.4662
▁Geschmack	-11.4662
▁SETI	-11.4662
▁Spannung	-11.4662
▁betroffen	-11.4662
▁fragment	-11.4662
▁lächerlich	-11.4662
▁polio	-11.4662
▁recommend	-11.4662
▁skeleton	-11.4662
▁Rwanda	-11.4662
▁domestic	-11.4662
▁extent	-11.4662
▁angry	-11.4662
▁Henry	-11.4662
▁grave	-11.4662
▁lehren	-11.4662
▁honey	-11.4662
▁pyramid	-11.4662
▁salt	-11.4662
▁Psychologie	-11.4662
▁MRI	-11.4662
▁fascinated	-11.4663
▁Trotzdem	-11.4663
▁colony	-11.4663
▁2012	-11.4664
▁1.000	-11.4664
▁Gi	-11.4665
▁meter	-11.4665
▁regime	-11.4665
▁2020	-11.4665
▁nachhaltig	-11.4665
▁properly	-11.4666
▁machst	-11.4666
▁jährlich	-11.4666
▁Treffen	-11.4667
▁spüren	-11.4668
▁floating	-11.4671
▁golf	-11.4671
▁stands	-11.4671
▁Terroristen	-11.4673
▁Sichtweise	-11.4673
▁Mangel	-11.4673
atic	-11.4673
▁berechnen	-11.4675
▁Erwartungen	-11.4676
▁raising	-11.4676
▁accepted	-11.4676
▁CD	-11.4677
▁ausmacht	-11.4678
▁neutral	-11.4679
▁pink	-11.4682
▁hi	-11.4682
▁printing	-11.4683
▁par	-11.4683
▁spannend	-11.4683
▁umzugehen	-11.4684
▁fingers	-11.4684
▁flower	-11.4685
▁Inneren	-11.4686
▁Fahrer	-11.469
gibt	-11.4693
▁dozen	-11.4694
▁Krieges	-11.4694
▁achieved	-11.4697
▁eingeführt	-11.4697
▁Give	-11.4704
▁pie	-11.4706
tischen	-11.4707
▁letzter	-11.4708
ks	-11.4709
▁Stiftung	-11.4713
▁Leiter	-11.4713
▁Nutzer	-11.4715
▁mate	-11.4719
frage	-11.472
▁kritische	-11.4722
▁Dia	-11.4727
dollar	-11.4728
▁Make	-11.4729
geführt	-11.473
▁spoken	-11.4731
▁Rose	-11.4736
▁provided	-11.4736
▁Any	-11.474
bal	-11.4743
zuhalten	-11.4747
▁Flagge	-11.4758
▁Faktor	-11.4759
▁sozial	-11.4767
▁Gl	-11.4767
modell	-11.4777
design	-11.4779
▁consumers	-11.478
▁subjects	-11.4785
▁130	-11.4788
▁jenen	-11.4791
▁Wasserstoff	-11.4792
▁Nations	-11.4794
kurs	-11.4795
▁Zwischen	-11.4795
▁flash	-11.4795
▁Weibchen	-11.4795
▁bedroht	-11.4795
▁dancing	-11.4795
▁obsessed	-11.4795
▁Humor	-11.4795
▁zurückkehren	-11.4795
▁herrscht	-11.4795
▁erfassen	-11.4795
▁pretend	-11.4795
▁fotografiert	-11.4795
▁agenda	-11.4795
▁Theorien	-11.4795
▁chest	-11.4795
▁causing	-11.4795
▁Bibel	-11.4796
▁Pollen	-11.4796
▁Funk	-11.4796
▁stack	-11.4796
▁naja	-11.4796
▁plans	-11.4797
▁sensors	-11.4797
▁Jones	-11.4798
strom	-11.48
▁Argument	-11.4801
▁gek	-11.4801
▁nationale	-11.4804
▁Level	-11.4804
▁blame	-11.4805
▁Saal	-11.4806
▁Fr	-11.4807
▁dauern	-11.4809
Erinnern	-11.481
▁divided	-11.4811
▁functional	-11.4813
▁Computern	-11.4815
▁Wichtigste	-11.4818
▁Rob	-11.4822
▁beach	-11.4826
▁tower	-11.4826
▁existed	-11.4829
▁populations	-11.4836
▁aspects	-11.4837
▁dient	-11.4838
▁Dimensionen	-11.4838
▁Machen	-11.4849
▁pollen	-11.4849
▁rechte	-11.4851
▁monkeys	-11.4853
▁Schweine	-11.4856
▁freie	-11.4859
▁ethical	-11.4864
▁rely	-11.4869
▁Steuer	-11.4872
▁folgenden	-11.4874
▁magnet	-11.4874
▁Alternative	-11.4877
▁Richtungen	-11.4877
cut	-11.4877
▁48	-11.4879
wing	-11.4882
▁gewann	-11.4885
▁y	-11.4885
▁Bedrohung	-11.4886
▁Teams	-11.4889
▁Stift	-11.4894
▁gezogen	-11.4898
▁niemanden	-11.4898
▁whale	-11.49
▁marketing	-11.49
▁eigentliche	-11.4901
▁practices	-11.4907
▁cast	-11.4911
▁liebte	-11.4914
▁Sequenz	-11.4919
▁encounter	-11.492
called	-11.4921
▁suck	-11.4924
▁1998	-11.493
▁Erfinder	-11.493
▁Flüssigkeit	-11.493
▁challenging	-11.493
▁external	-11.493
▁genius	-11.493
▁identical	-11.493
▁korrekt	-11.493
▁plenty	-11.493
▁verliert	-11.493
▁Illusion	-11.493
▁Privatsphäre	-11.493
▁therapy	-11.493
▁Carolina	-11.493
▁rising	-11.493
▁shelter	-11.493
▁erfüllt	-11.4931
▁alarm	-11.4931
▁Marken	-11.4932
▁Weltbevölkerung	-11.4932
▁gründen	-11.4933
▁Abou	-11.4933
▁mittels	-11.4933
▁grandfather	-11.4933
▁lamp	-11.4934
▁recovery	-11.4934
▁windows	-11.4938
▁hire	-11.4938
▁tries	-11.4938
▁Gleich	-11.4939
▁demographic	-11.494
▁Newton	-11.4942
▁20,000	-11.4943
▁Scott	-11.4947
▁schlimm	-11.4948
▁promote	-11.4949
▁dunkel	-11.4949
▁offered	-11.4949
▁technische	-11.4951
▁planen	-11.4952
▁bend	-11.4957
▁mächtig	-11.4961
▁agreed	-11.497
▁presented	-11.4977
fällig	-11.4979
▁Meere	-11.4982
ndung	-11.4983
▁ears	-11.4984
▁allgemeine	-11.4987
▁gesetzt	-11.4993
cus	-11.4996
level	-11.4996
bilder	-11.5003
▁Verkehr	-11.5006
▁journalist	-11.5007
▁Groß	-11.5008
▁bet	-11.5015
▁tiefe	-11.5018
▁gemein	-11.502
▁deaths	-11.5021
▁Eigenschaft	-11.5023
▁klug	-11.5023
Aber	-11.5024
▁Szene	-11.5024
▁cow	-11.5024
▁Katze	-11.5024
▁Unternehmens	-11.503
▁papers	-11.503
▁tests	-11.5032
▁Wegen	-11.5033
▁Großen	-11.5033
▁Immer	-11.5035
▁Haare	-11.5035
our	-11.5038
▁tech	-11.5041
holen	-11.5045
▁kognitive	-11.5047
▁zusätzlich	-11.5054
▁extinct	-11.5063
▁absorb	-11.5065
▁mad	-11.5066
▁Pinguine	-11.5066
▁courage	-11.5067
▁Euro	-11.5067
▁Berkeley	-11.5067
▁Monterey	-11.5067
▁Remember	-11.5067
▁Shakespeare	-11.5067
▁berühren	-11.5067
▁diabetes	-11.5067
▁frankly	-11.5067
▁integriert	-11.5067
▁routine	-11.5067
▁Weisheit	-11.5067
▁Black	-11.5067
▁quad	-11.5068
▁Sektor	-11.5068
▁hardware	-11.5068
▁bond	-11.5068
▁Verlauf	-11.5069
waffe	-11.5069
▁engagement	-11.507
▁Angriff	-11.507
▁Höhepunkt	-11.5071
▁precisely	-11.5071
▁Six	-11.5071
▁Kuh	-11.5072
▁attached	-11.5072
▁molekulare	-11.5073
▁Initiative	-11.5073
gründe	-11.5073
▁Laser	-11.5074
▁RM	-11.5074
▁dreidimensional	-11.5074
▁Girl	-11.5075
zentrum	-11.5076
▁usual	-11.5078
▁jegliche	-11.508
äre	-11.508
▁mainly	-11.5085
▁stimmen	-11.5087
▁Kameras	-11.5088
ery	-11.5088
▁Cor	-11.5089
take	-11.509
▁Dick	-11.509
▁psychische	-11.5096
▁drinking	-11.5096
▁collecting	-11.5096
▁aim	-11.5097
▁Einrichtungen	-11.5098
▁mutig	-11.5101
▁traveled	-11.5104
iness	-11.5104
▁Investitionen	-11.5106
▁corals	-11.5107
▁younger	-11.5111
▁Sagen	-11.5112
▁komisch	-11.5114
▁Metern	-11.5116
▁chosen	-11.5121
eign	-11.5121
▁slides	-11.5122
▁Systemen	-11.5123
▁Bier	-11.5124
▁zukünftige	-11.5127
▁borders	-11.5129
▁Strategien	-11.5133
film	-11.5136
▁wise	-11.5138
▁rat	-11.5139
dom	-11.5143
▁besucht	-11.5146
zero	-11.5149
eil	-11.5151
▁Wahlen	-11.5153
▁exponentiell	-11.5155
ned	-11.5157
eis	-11.5159
▁moralischen	-11.516
▁bill	-11.5161
▁Ursache	-11.5163
▁saßen	-11.5163
gon	-11.5163
▁bemerkenswerte	-11.5165
▁Haie	-11.5165
▁bizarre	-11.5168
▁komplex	-11.517
karte	-11.517
▁eingehen	-11.5172
gleich	-11.5173
▁änderte	-11.5174
ierende	-11.5174
▁Ring	-11.5174
▁entscheidende	-11.5174
▁schlau	-11.5175
▁Kreuz	-11.5176
▁Widerstand	-11.5176
▁colleague	-11.518
▁circuit	-11.5185
will	-11.5189
▁owner	-11.5195
▁stretch	-11.5196
▁initial	-11.5201
alen	-11.5204
▁Knopf	-11.5206
▁Niveau	-11.5206
▁Parkinson	-11.5206
▁Watson	-11.5206
▁beschreibt	-11.5206
▁ernähren	-11.5206
▁orchestra	-11.5206
▁request	-11.5206
▁ridiculous	-11.5206
▁unexpected	-11.5206
▁Next	-11.5206
▁dioxide	-11.5206
▁tasks	-11.5206
▁Stephen	-11.5206
▁Narrator	-11.5206
▁Polio	-11.5206
▁sheep	-11.5206
▁gebildet	-11.5206
▁football	-11.5207
fund	-11.5209
▁spinal	-11.521
▁controlling	-11.5213
▁Miss	-11.5213
▁Beton	-11.5214
▁PC	-11.5214
▁leiten	-11.5214
unclear	-11.5216
züge	-11.5218
▁faced	-11.5219
▁vorhin	-11.5221
▁cap	-11.5222
▁latest	-11.5222
▁Welten	-11.5223
▁Ganzen	-11.5224
▁package	-11.5225
hol	-11.5225
▁oberen	-11.5234
▁replicate	-11.5238
▁brothers	-11.524
▁Umständen	-11.5246
ying	-11.5246
▁mice	-11.5249
nna	-11.5249
▁radikal	-11.526
werfen	-11.5261
▁Oft	-11.5263
▁Guten	-11.5263
verse	-11.5265
▁Nick	-11.5265
▁expectations	-11.5265
▁films	-11.5266
▁continued	-11.5269
▁Gegenden	-11.5272
▁technischen	-11.5278
▁Nahe	-11.5283
▁Schmerzen	-11.5285
▁lebenden	-11.5288
▁directions	-11.5289
Let	-11.529
▁Mathe	-11.5293
▁dicht	-11.53
▁gre	-11.5301
etic	-11.5302
▁Übung	-11.5303
▁höchst	-11.5304
roll	-11.5305
▁vessels	-11.5307
▁winzigen	-11.5314
aktion	-11.5319
▁consume	-11.5319
▁telescope	-11.5321
▁Dame	-11.5321
▁intensive	-11.5321
▁elephant	-11.5322
▁toilet	-11.5322
▁weltweite	-11.5323
▁öffnet	-11.5325
ueen	-11.5325
▁sport	-11.5325
mut	-11.5326
▁bra	-11.5327
▁Dienst	-11.5327
olds	-11.5328
▁Projekten	-11.5334
energie	-11.5335
richtung	-11.5337
Ka	-11.5338
▁Leber	-11.5338
uten	-11.5339
ola	-11.534
▁November	-11.5347
▁Skelett	-11.5347
▁curiosity	-11.5347
▁emergency	-11.5347
▁gewöhnt	-11.5347
▁legacy	-11.5347
▁microscope	-11.5347
▁suicide	-11.5347
▁yield	-11.5347
▁Überwachung	-11.5347
▁welcome	-11.5347
▁Gebrauch	-11.5347
▁Sätze	-11.5347
▁1999	-11.5347
▁Virginia	-11.5347
▁concert	-11.5347
▁gemessen	-11.5348
▁export	-11.5348
▁Verteilung	-11.5348
▁tanzen	-11.5349
▁laughter	-11.5349
▁cash	-11.5349
▁Trans	-11.535
▁equality	-11.535
▁Vorgang	-11.535
▁defend	-11.5351
py	-11.5351
▁LG	-11.5352
▁scary	-11.5352
▁Ethiopia	-11.5352
▁density	-11.5352
▁finanziert	-11.5353
▁representation	-11.5356
▁Vorträge	-11.5357
▁virtually	-11.5358
hang	-11.5359
▁mold	-11.5359
▁autonomous	-11.5362
▁technologische	-11.5364
rot	-11.5367
▁Really	-11.5367
konomen	-11.5368
▁rap	-11.5369
▁shake	-11.5369
▁Summe	-11.5369
▁Schreiben	-11.5372
▁Gesichts	-11.5372
▁31	-11.5373
▁halt	-11.5373
▁seed	-11.5374
▁verw	-11.5376
wasser	-11.5378
▁signed	-11.5379
swert	-11.5381
▁gross	-11.5389
▁till	-11.5394
▁Amy	-11.5394
▁Faktoren	-11.5394
sitz	-11.5395
illa	-11.5402
▁Mathematiker	-11.5402
▁spreading	-11.5405
▁lernten	-11.5406
▁Israeli	-11.5408
▁neuro	-11.5424
stab	-11.5429
OK	-11.543
▁Wohl	-11.5431
▁wenden	-11.5434
▁grows	-11.5441
▁involves	-11.5442
stände	-11.5444
▁kreativen	-11.5445
▁Fischer	-11.5445
▁Laufen	-11.5446
▁Zähne	-11.5446
▁Katastrophe	-11.5447
▁geo	-11.5449
▁iron	-11.5454
tschaftswachstum	-11.5454
zieht	-11.5455
▁Nie	-11.546
▁schickte	-11.5461
▁Alters	-11.5464
▁Hinweise	-11.5466
licherweise	-11.5466
▁Wachstums	-11.5467
▁einzigartig	-11.5472
pre	-11.5473
room	-11.5474
▁privilege	-11.5475
▁calculate	-11.5475
▁anstelle	-11.5484
▁verschiedener	-11.5484
hai	-11.5486
▁grundlegenden	-11.5487
how	-11.5488
▁intelligente	-11.5489
▁Zahn	-11.549
▁Brooklyn	-11.549
▁Clinton	-11.549
▁Hawaii	-11.549
▁ceiling	-11.549
▁gezwungen	-11.549
▁identifizieren	-11.549
▁insgesamt	-11.549
▁miracle	-11.549
▁procedure	-11.549
▁senior	-11.549
▁verdammt	-11.549
▁Nothing	-11.549
▁Daumen	-11.549
▁repräsentiert	-11.549
▁spill	-11.549
▁verlangt	-11.549
▁kreiert	-11.549
▁Medium	-11.549
▁poison	-11.549
▁productivity	-11.549
▁horizontal	-11.549
▁Gar	-11.549
▁neigen	-11.549
▁Betrieb	-11.5491
▁ticket	-11.5491
▁demonstration	-11.5491
▁Dadurch	-11.5491
tat	-11.5491
▁wovon	-11.5492
▁Pause	-11.5492
▁elite	-11.5493
▁Ausrüstung	-11.5493
▁Probe	-11.5493
▁benutze	-11.5493
▁Stock	-11.5494
▁Brüder	-11.5495
▁angehen	-11.5495
Don	-11.5495
▁Woman	-11.5495
▁darkness	-11.5496
▁hingehen	-11.5496
▁Leonardo	-11.5496
▁personality	-11.5497
burg	-11.55
▁volunteers	-11.5501
▁Komponenten	-11.5507
tze	-11.5509
▁resolution	-11.551
▁Age	-11.551
mobil	-11.5512
▁anzusehen	-11.5513
srate	-11.5514
formen	-11.5517
▁Universitäten	-11.5518
▁IBM	-11.5518
▁gelbe	-11.5522
▁parking	-11.553
▁mail	-11.5534
▁soweit	-11.5543
agen	-11.5543
▁recognized	-11.5545
reise	-11.5548
▁gelassen	-11.5549
sagen	-11.5549
▁bi	-11.5551
▁melt	-11.5555
▁Za	-11.5557
▁dunklen	-11.5557
steht	-11.5562
▁sales	-11.5572
▁klassische	-11.5573
low	-11.5575
▁tuna	-11.5578
tron	-11.5581
▁Leid	-11.5585
▁Ger	-11.5588
▁Spar	-11.5588
▁Klinik	-11.559
▁Partei	-11.5592
▁Handlung	-11.5593
▁Präsidenten	-11.5594
▁72	-11.5596
▁fabric	-11.5598
▁Farm	-11.5598
▁organize	-11.5598
▁liver	-11.5603
▁interessanten	-11.5603
▁muscles	-11.5603
▁Mad	-11.5605
▁Trend	-11.5612
▁iPod	-11.5613
▁politisch	-11.5613
▁belong	-11.5613
nische	-11.5614
▁weapon	-11.5615
probleme	-11.5615
▁Reisen	-11.5618
unwahrscheinlich	-11.5619
hood	-11.5621
▁ruin	-11.5622
▁advance	-11.5627
▁rough	-11.563
▁allgemein	-11.563
▁Albert	-11.5632
geschäft	-11.5634
körper	-11.5634
▁Antibiotika	-11.5635
▁Autismus	-11.5635
▁Transparenz	-11.5635
▁Tränen	-11.5635
▁description	-11.5635
▁dignity	-11.5635
▁gestartet	-11.5635
▁illustrate	-11.5635
▁mechanics	-11.5635
▁probability	-11.5635
▁scratch	-11.5635
▁umgekehrt	-11.5635
▁Bewohner	-11.5635
▁distant	-11.5635
▁scenario	-11.5635
▁philosophy	-11.5635
▁Hitze	-11.5635
▁strategies	-11.5635
▁1930	-11.5635
▁Dialog	-11.5635
▁bedeckt	-11.5635
▁befreien	-11.5635
▁minus	-11.5635
▁household	-11.5635
▁Kapitalismus	-11.5635
▁corn	-11.5636
zusetzen	-11.5636
▁verbraucht	-11.5636
▁Hong	-11.5636
▁ausgewählt	-11.5636
▁Übergang	-11.5636
▁County	-11.5636
▁wahrnehmen	-11.5636
▁vielmehr	-11.5637
▁Kilo	-11.5637
▁poorest	-11.5639
▁Out	-11.5639
▁dazwischen	-11.564
▁Euch	-11.5641
▁50,000	-11.5643
▁vorwärts	-11.5644
▁weißt	-11.5646
▁erwähnen	-11.5648
▁poly	-11.5649
▁ältere	-11.565
▁ersetzt	-11.5652
▁Original	-11.5653
▁cart	-11.5653
▁missed	-11.5654
▁Ausgaben	-11.5657
▁starken	-11.5658
▁removed	-11.5658
▁kümmert	-11.5659
▁ökonomische	-11.566
▁conventional	-11.5661
▁trat	-11.5662
▁teams	-11.5662
▁eingebaut	-11.5664
▁Please	-11.5665
▁inspirieren	-11.5666
▁raw	-11.5668
▁touched	-11.5668
▁Muskeln	-11.5672
▁hip	-11.5672
▁Lama	-11.5678
▁Hä	-11.5679
▁backwards	-11.5681
▁Katzen	-11.5681
▁tu	-11.5681
but	-11.5682
▁Ober	-11.5684
▁conduct	-11.5684
▁zurückgehen	-11.5687
▁placed	-11.5691
teilung	-11.5699
▁schaue	-11.5699
▁brechen	-11.57
▁worker	-11.5704
▁Par	-11.5704
dern	-11.5705
▁unterrichtet	-11.5706
stern	-11.5709
▁ju	-11.571
▁sets	-11.5714
leuchten	-11.5714
bekommen	-11.5715
▁rooms	-11.5717
▁officer	-11.5718
▁paintings	-11.572
spielen	-11.5725
▁Sc	-11.5726
▁dienen	-11.573
ima	-11.5731
lus	-11.5731
▁Kommen	-11.5734
▁Fahrzeuge	-11.5737
▁Sorge	-11.5739
▁Fang	-11.5742
▁Statistik	-11.5743
▁ac	-11.5749
▁Stoff	-11.5759
grad	-11.5761
▁kleinere	-11.5768
wende	-11.5769
bus	-11.5772
onic	-11.5773
basierte	-11.5776
▁Juni	-11.5777
▁analog	-11.5777
▁Ken	-11.5779
▁Bedürfnis	-11.578
kräfte	-11.5781
▁Möbel	-11.5782
▁Neuigkeiten	-11.5782
▁Seattle	-11.5782
▁Tragödie	-11.5782
▁Vergnügen	-11.5782
▁advertising	-11.5782
▁geeignet	-11.5782
▁geöffnet	-11.5782
▁transparency	-11.5782
▁universities	-11.5782
▁zwingen	-11.5782
▁öfter	-11.5782
▁wirksam	-11.5782
▁adjust	-11.5782
▁appeal	-11.5782
▁Größenordnung	-11.5782
▁getestet	-11.5782
▁stirbt	-11.5782
▁governance	-11.5782
▁committed	-11.5782
▁eingeladen	-11.5782
▁theories	-11.5782
▁Onkel	-11.5783
▁Ruhe	-11.5784
▁Datenbank	-11.5784
▁Vorschlag	-11.5785
▁Speicher	-11.5786
▁Children	-11.5788
glo	-11.5788
▁hill	-11.5789
▁linke	-11.579
Mails	-11.579
verkehr	-11.5792
code	-11.5794
zieren	-11.5795
▁Jean	-11.5796
▁entered	-11.5801
itz	-11.5806
▁Übrigens	-11.5806
▁Führungs	-11.5808
▁captured	-11.5809
▁Geschlecht	-11.5812
schicht	-11.5814
▁sw	-11.5815
▁Love	-11.5818
▁sheet	-11.5821
▁disc	-11.5826
▁Proben	-11.5828
▁generated	-11.5829
▁wunderbaren	-11.583
▁wing	-11.5831
▁Training	-11.5837
▁Flächen	-11.5838
gan	-11.5848
helf	-11.5849
▁Patent	-11.5852
made	-11.5854
▁zuhören	-11.5854
ax	-11.5859
▁hassen	-11.5861
▁graphic	-11.5863
Technologie	-11.5864
rechte	-11.5864
▁Schwestern	-11.5867
▁Medikamenten	-11.5869
▁Muslime	-11.5872
▁efforts	-11.5873
mmel	-11.5873
▁Nordamerika	-11.5876
▁Bell	-11.5877
▁Stil	-11.5878
▁Fliege	-11.588
▁zurecht	-11.5882
▁Teleskop	-11.5884
▁customers	-11.5885
▁Füße	-11.5888
▁könne	-11.5888
▁Tasche	-11.5889
▁afrikanische	-11.5891
▁concepts	-11.5895
führt	-11.59
▁Werke	-11.5901
onen	-11.5903
▁beeindruckend	-11.5904
▁Privat	-11.5906
▁Ballon	-11.5911
▁schnelle	-11.5911
schau	-11.5914
▁Etwa	-11.5915
▁particle	-11.5915
▁inspire	-11.5916
▁implant	-11.5917
ave	-11.5918
There	-11.5925
▁dive	-11.5927
▁Schlacht	-11.5929
lop	-11.593
▁anonym	-11.593
▁regard	-11.5931
würdig	-11.5931
▁prices	-11.5931
ough	-11.5931
▁Wechsel	-11.5931
▁Ungleichheit	-11.5931
▁Cyber	-11.5931
▁Schädel	-11.5931
▁defense	-11.5931
▁hungry	-11.5931
▁inklusive	-11.5931
▁rainforest	-11.5931
▁reputation	-11.5931
▁skull	-11.5931
▁surveillance	-11.5931
▁Ocean	-11.5931
▁drove	-11.5931
▁Soviet	-11.5931
▁neuroscience	-11.5931
▁schmerzhaft	-11.5931
▁adventure	-11.5931
▁mittlerweile	-11.5931
▁Reichtum	-11.5931
▁Joseph	-11.5931
▁Indeed	-11.5931
▁Organismus	-11.5932
erseits	-11.5932
▁accessible	-11.5932
▁Staub	-11.5932
▁Richter	-11.5933
▁legte	-11.5933
▁Scham	-11.5934
▁Block	-11.5934
räumen	-11.5935
▁objective	-11.5935
▁Bible	-11.5935
▁Eastern	-11.5938
▁Ehre	-11.5939
▁..."	-11.5941
▁Maßnahmen	-11.5941
▁beigebracht	-11.5942
▁chief	-11.5944
hielt	-11.5948
▁brief	-11.5948
▁medi	-11.5949
▁anscheinend	-11.5951
lla	-11.5951
▁Data	-11.5952
▁schöner	-11.5957
▁AG	-11.5958
▁wunderschön	-11.5959
▁Friedens	-11.5963
▁rebuild	-11.5967
▁interacting	-11.5968
▁march	-11.5969
schneiden	-11.5969
▁EM	-11.5971
▁Lake	-11.5971
hob	-11.5972
run	-11.5976
▁quit	-11.5982
position	-11.5982
▁mitnehmen	-11.5984
▁Mitglied	-11.5989
▁fed	-11.599
▁Nature	-11.5991
▁writer	-11.5992
▁richten	-11.5993
▁nahezu	-11.5995
▁reaching	-11.5998
vers	-11.6006
▁wieviel	-11.6006
▁angeht	-11.6007
▁ingredients	-11.6009
▁acts	-11.6011
glich	-11.6013
▁formula	-11.6015
ähnliche	-11.6022
▁Prozesse	-11.6025
brechen	-11.6025
▁besonderen	-11.6028
own	-11.6028
▁Beide	-11.6028
nahme	-11.6029
▁Besitz	-11.6034
▁symbols	-11.6036
▁Figur	-11.6038
▁verlor	-11.6038
▁durfte	-11.6039
▁mochte	-11.604
▁sang	-11.604
▁Umstände	-11.6041
▁Batterie	-11.6047
▁Nachde	-11.6052
▁crops	-11.6053
▁incentives	-11.6055
greifen	-11.6056
▁schwach	-11.6057
▁stepp	-11.6058
▁drehte	-11.6067
▁criminal	-11.6068
▁tears	-11.6069
▁reefs	-11.6071
▁Dutzend	-11.6072
ago	-11.6076
▁angle	-11.6076
ird	-11.6078
gesetzt	-11.6081
▁McDonald	-11.6083
▁1995	-11.6083
▁Abenteuer	-11.6083
▁April	-11.6083
▁Mozart	-11.6083
▁Oxytocin	-11.6083
▁ausschließlich	-11.6083
▁diskutieren	-11.6083
▁drift	-11.6083
▁erfordert	-11.6083
▁frozen	-11.6083
▁symmetry	-11.6083
▁Käfer	-11.6083
▁angepasst	-11.6083
▁awesome	-11.6083
▁simulation	-11.6083
▁verblüffend	-11.6083
▁leap	-11.6083
▁Edward	-11.6083
▁entertainment	-11.6083
▁underground	-11.6083
▁Einfachheit	-11.6083
viel	-11.6084
▁nebenbei	-11.6084
▁Egal	-11.6084
▁Zero	-11.6085
▁opposed	-11.6086
inblick	-11.6087
▁Charlie	-11.6087
▁Islamic	-11.6088
▁Studium	-11.6088
▁peer	-11.6089
▁actors	-11.609
▁Ideal	-11.6093
Ab	-11.6093
neu	-11.6093
▁explosion	-11.6093
▁ländlichen	-11.6093
▁setzten	-11.6095
zelle	-11.6096
▁males	-11.6098
▁disappeared	-11.6099
aving	-11.6103
▁ausmachen	-11.6106
▁laughing	-11.6108
▁Nahrungs	-11.6108
▁20-	-11.611
▁layers	-11.6112
▁betreffen	-11.6112
▁treiben	-11.6114
▁pad	-11.6115
tus	-11.6116
▁übersetzen	-11.6117
▁Gedichte	-11.6118
▁Lungen	-11.6119
▁fu	-11.6125
▁antibiotics	-11.6125
tausend	-11.6127
▁meetings	-11.6129
menge	-11.6135
▁magische	-11.6139
▁News	-11.6143
hü	-11.6145
▁breaking	-11.6147
boot	-11.6147
▁Würden	-11.6151
auto	-11.6153
zulegen	-11.6154
▁Hören	-11.6155
woher	-11.6165
Projekt	-11.6169
century	-11.6169
Schau	-11.617
ological	-11.6173
▁Abed	-11.6174
▁46	-11.6175
▁Oberflächen	-11.6184
▁unternehmen	-11.6185
▁Darauf	-11.6189
▁Verbesserung	-11.6192
▁comment	-11.6196
▁proportion	-11.6197
▁gefährdet	-11.6197
▁Schulter	-11.6197
▁Kiste	-11.6197
are	-11.6199
cop	-11.6202
▁benutzte	-11.6203
tle	-11.6205
▁Ti	-11.6206
▁Dinger	-11.621
ini	-11.6211
▁Tour	-11.6212
▁gründete	-11.6214
rid	-11.6214
▁Medica	-11.6218
▁Schwarze	-11.622
▁Mos	-11.6222
▁CEO	-11.6223
▁observation	-11.6224
▁volunteer	-11.6225
▁tour	-11.6225
upp	-11.623
▁Hol	-11.6231
▁lens	-11.6231
▁capita	-11.6232
lösung	-11.6234
▁icon	-11.6236
▁Abhängigkeit	-11.6236
▁Bedarf	-11.6236
▁Columbia	-11.6236
▁Dynamik	-11.6236
▁Kennedy	-11.6236
▁Simulation	-11.6236
▁Verteidigung	-11.6236
▁definitiv	-11.6236
▁embedded	-11.6236
▁exploring	-11.6236
▁happier	-11.6236
▁herself	-11.6236
▁insurance	-11.6236
▁Anpassung	-11.6236
▁anbieten	-11.6236
▁charity	-11.6236
▁letztlich	-11.6236
▁flood	-11.6236
▁Konsumenten	-11.6237
▁Jedenfalls	-11.6237
▁feiern	-11.6237
▁beschleunigt	-11.6237
▁stets	-11.6237
▁brown	-11.6237
▁tragedy	-11.6237
▁partnership	-11.6237
▁hilfreich	-11.6237
▁Master	-11.6238
▁drum	-11.6238
▁Wale	-11.6239
▁verarbeiten	-11.6239
▁Philosophie	-11.6239
zogen	-11.6239
▁produces	-11.6241
▁exam	-11.6241
▁stable	-11.6242
▁Fischerei	-11.6242
▁imagined	-11.6244
▁achievement	-11.6244
▁Biologen	-11.6245
▁Explosion	-11.6245
▁kg	-11.6246
ddy	-11.6247
▁dear	-11.6247
▁Flugzeuge	-11.6247
▁god	-11.6248
▁Laut	-11.6248
▁womit	-11.6249
▁output	-11.6252
▁Social	-11.6252
▁demonstrate	-11.6255
▁dick	-11.6259
▁Felder	-11.6263
turm	-11.6267
▁Preise	-11.6271
▁SP	-11.6271
▁schwerer	-11.6271
muster	-11.6276
▁cheaper	-11.6277
▁gerecht	-11.6278
▁shoulder	-11.6278
▁gear	-11.6278
▁reduced	-11.6279
▁axis	-11.628
▁Farb	-11.628
▁Personal	-11.628
▁Handlungen	-11.6284
kul	-11.6287
▁Werbe	-11.629
▁seeds	-11.6291
▁protecting	-11.6294
▁surely	-11.6295
For	-11.6297
änge	-11.6303
▁erhielten	-11.6305
▁unglücklich	-11.6308
▁tick	-11.6309
sprechen	-11.6314
▁Gal	-11.6315
▁aktuellen	-11.6315
▁komplette	-11.6316
▁Palm	-11.6318
Und	-11.6323
▁Milo	-11.6324
wood	-11.6325
wagen	-11.6327
▁dish	-11.633
▁Rollen	-11.6336
bon	-11.6343
▁realm	-11.6344
▁38	-11.6346
▁grossen	-11.6348
fläche	-11.6349
▁Wälder	-11.6349
mitten	-11.6349
▁Nadel	-11.6351
▁kit	-11.6353
▁lovely	-11.6355
ären	-11.6357
generation	-11.6358
▁wrap	-11.6358
▁wahren	-11.6361
▁appears	-11.6362
wachsen	-11.6363
räume	-11.6367
▁unsichtbar	-11.6368
▁historische	-11.6371
uad	-11.6378
rium	-11.6383
▁historical	-11.6389
▁Men	-11.6391
schläge	-11.6391
▁Pole	-11.6392
Hi	-11.6392
▁zogen	-11.6392
▁Alaska	-11.6393
▁Atlantic	-11.6393
▁Engagement	-11.6393
▁Hügel	-11.6393
▁Oktober	-11.6393
▁Substanz	-11.6393
▁Täuschung	-11.6393
▁elsewhere	-11.6393
▁süß	-11.6393
▁paradox	-11.6393
▁glad	-11.6393
▁ladies	-11.6393
▁vermittelt	-11.6393
▁sandwich	-11.6393
▁geplant	-11.6393
▁ugly	-11.6393
▁Bürgermeister	-11.6393
▁Geruch	-11.6393
▁trocken	-11.6393
▁Geographic	-11.6393
▁Frühling	-11.6393
▁schief	-11.6393
▁fortune	-11.6393
▁Logik	-11.6393
▁aircraft	-11.6393
▁scanner	-11.6394
▁Italy	-11.6394
▁tunnel	-11.6394
▁Kuchen	-11.6394
▁hindurch	-11.6394
▁Spring	-11.6394
▁airport	-11.6394
▁southern	-11.6396
ruf	-11.6396
▁debt	-11.6396
stätte	-11.6396
▁Ebenen	-11.6396
uanten	-11.6396
▁Effizienz	-11.6396
▁Standpunkt	-11.6398
▁Wut	-11.6398
▁echtes	-11.6398
Energieverbrauch	-11.6398
▁dirty	-11.6399
▁integrated	-11.64
▁Sammlung	-11.64
▁bewahren	-11.64
▁crucial	-11.64
▁Ross	-11.64
▁speakers	-11.64
▁antworten	-11.6401
▁unendlich	-11.6402
▁ungewöhnlich	-11.6403
▁pace	-11.6405
▁beides	-11.6406
▁Service	-11.6407
▁portrait	-11.6407
▁berichtet	-11.6409
▁Papa	-11.641
▁Sensoren	-11.6412
uit	-11.6412
▁irgendein	-11.6415
▁Pass	-11.6416
▁delivered	-11.6417
▁bath	-11.6417
▁mächtige	-11.642
▁neuron	-11.6422
▁returned	-11.6422
eute	-11.6423
▁Brad	-11.6423
▁Ratten	-11.6424
▁beliefs	-11.6426
▁professionelle	-11.6426
organisationen	-11.6429
▁rush	-11.643
til	-11.6431
Spiel	-11.6433
▁contains	-11.6435
▁Höhlen	-11.6435
▁inventor	-11.6447
▁searching	-11.6448
▁dig	-11.645
▁Line	-11.6452
ppel	-11.6452
▁spots	-11.6452
▁mechanisms	-11.6455
chi	-11.6457
▁systematisch	-11.646
▁theme	-11.6466
▁stabil	-11.6467
▁mi	-11.6467
▁Tal	-11.6467
▁Ansichten	-11.6476
▁weiterentwickel	-11.6477
▁Hals	-11.6482
bewusst	-11.6482
Programm	-11.6484
book	-11.6487
▁Lichter	-11.6487
▁soap	-11.6491
▁Funktionen	-11.6492
rock	-11.6493
▁Philip	-11.6495
▁relations	-11.6501
rück	-11.6503
rzten	-11.6503
▁Konzepte	-11.6504
▁predictions	-11.6505
phase	-11.6505
▁Nu	-11.6507
▁Investition	-11.6507
▁Küche	-11.6508
▁experimental	-11.6508
cellular	-11.6511
zuziehen	-11.6516
▁Feind	-11.6517
▁sozialer	-11.6519
iff	-11.652
▁gel	-11.652
▁typische	-11.6523
▁Autor	-11.6524
▁pursue	-11.6526
▁Kit	-11.6527
▁interpret	-11.6529
▁Steven	-11.6531
programme	-11.6533
▁arrive	-11.6537
▁Rezept	-11.6538
▁steal	-11.6538
▁lasse	-11.6541
▁murder	-11.6541
▁implement	-11.6542
▁schlimmsten	-11.6542
▁revenue	-11.6543
▁fa	-11.6545
▁komplizierter	-11.6545
▁Röntgen	-11.6547
▁Hilfs	-11.6551
▁Mumbai	-11.6551
▁analysieren	-11.6551
▁borrow	-11.6551
▁depressed	-11.6551
▁enemy	-11.6551
▁vacuum	-11.6551
▁helicopter	-11.6551
▁stroke	-11.6551
▁acknowledge	-11.6551
▁Passwörter	-11.6551
▁Anzeige	-11.6551
▁breakthrough	-11.6551
▁copyright	-11.6552
▁capability	-11.6552
▁verzweifelt	-11.6552
▁füllen	-11.6552
▁slice	-11.6552
▁pipe	-11.6552
▁verstecken	-11.6552
▁actor	-11.6553
▁Antrieb	-11.6553
▁geraten	-11.6554
▁Gestaltung	-11.6554
▁lake	-11.6555
▁Mor	-11.6555
▁conservative	-11.6555
▁mask	-11.6556
▁Ausland	-11.6556
▁Löwen	-11.6556
▁Chinesisch	-11.6556
▁JF	-11.6558
▁früheren	-11.6558
▁reactor	-11.6558
▁ignore	-11.6561
▁ignoriert	-11.6562
▁Arthur	-11.6562
▁dynamics	-11.6562
▁tension	-11.6562
▁Säugetiere	-11.6562
▁wound	-11.6563
▁Feder	-11.6564
▁blend	-11.6564
gebiete	-11.6567
fass	-11.6575
▁Lesen	-11.6582
▁Hinweis	-11.6582
▁magical	-11.6582
▁pause	-11.6582
▁aside	-11.6585
▁gering	-11.6586
▁aufrecht	-11.6589
Who	-11.6592
▁Toiletten	-11.6593
▁boss	-11.6593
▁connecting	-11.6597
▁aggressive	-11.6598
▁cute	-11.6605
▁Ohr	-11.6611
ez	-11.6617
▁religiöse	-11.6619
▁Fehl	-11.662
▁globally	-11.662
▁dial	-11.6622
▁Cas	-11.6632
▁Ali	-11.6635
power	-11.6635
hat	-11.6639
AIDS	-11.6645
Where	-11.6645
minute	-11.6646
▁mar	-11.6647
▁coat	-11.665
▁Durchschnitts	-11.6653
▁44	-11.6655
mission	-11.6656
get	-11.6656
▁Links	-11.6656
▁wanting	-11.6657
▁chimpanzees	-11.6659
▁Seh	-11.6661
▁dolphins	-11.6667
▁Waffe	-11.6668
▁Symmetrie	-11.6669
▁Pflanze	-11.667
▁flog	-11.6671
▁deck	-11.6675
▁Win	-11.6677
nseits	-11.6682
pfen	-11.6683
▁units	-11.6685
▁heben	-11.6688
▁terrorist	-11.6689
iker	-11.6694
tzen	-11.6695
▁analyze	-11.6698
▁wings	-11.6699
▁uncle	-11.6701
▁cheat	-11.6702
▁Designs	-11.6702
▁knee	-11.6708
▁cur	-11.6712
▁occasion	-11.6712
▁1994	-11.6713
▁Atlanta	-11.6713
▁Lächeln	-11.6713
▁October	-11.6713
▁Tempo	-11.6713
▁Vermögen	-11.6713
▁agencies	-11.6713
▁beschränkt	-11.6713
▁decrease	-11.6713
▁erledigen	-11.6713
▁pregnant	-11.6713
▁sensation	-11.6713
▁smallpox	-11.6713
▁smoking	-11.6713
▁translation	-11.6713
▁unterscheidet	-11.6713
▁variable	-11.6713
▁naked	-11.6713
▁sharp	-11.6713
▁japanische	-11.6713
▁befassen	-11.6713
▁freak	-11.6713
▁Kooperation	-11.6713
▁Gegenstände	-11.6713
▁Everest	-11.6713
▁Harry	-11.6713
▁Gerade	-11.6713
▁Sprung	-11.6713
▁ooh	-11.6713
▁Sarah	-11.6713
▁Prize	-11.6713
▁Zurück	-11.6713
▁Strahlung	-11.6713
▁Sierra	-11.6713
▁queen	-11.6714
▁Lärm	-11.6714
▁Schock	-11.6714
▁Coca	-11.6714
▁affordable	-11.6716
▁Terror	-11.6716
▁Aufstieg	-11.6716
▁Front	-11.6716
▁beträgt	-11.6716
▁dedicated	-11.6716
▁Rick	-11.6718
▁plug	-11.6718
▁exposed	-11.6719
▁unterhalten	-11.6719
▁initiative	-11.6721
▁beitragen	-11.6722
▁fließt	-11.6723
▁riesiges	-11.6723
▁Pan	-11.6724
▁heroes	-11.6725
getreten	-11.6727
wirtschaftlichen	-11.6727
▁fifth	-11.6729
▁parties	-11.6729
▁übersetzt	-11.6731
▁painted	-11.6735
▁upset	-11.6736
änderung	-11.6738
▁empfinden	-11.674
▁inform	-11.6742
▁Africans	-11.6743
▁pushed	-11.6744
▁Bad	-11.6745
▁bekannte	-11.6748
gehend	-11.6749
▁Felsen	-11.6752
▁separated	-11.6754
▁angekommen	-11.676
▁AK	-11.6761
▁dimension	-11.6763
sani	-11.6765
▁Sahara	-11.6767
▁dringend	-11.6767
▁dust	-11.6768
schi	-11.6772
▁characteristics	-11.6778
▁span	-11.6782
ties	-11.6782
▁geh	-11.6785
▁Nest	-11.6792
▁Flo	-11.6799
view	-11.6805
▁Sur	-11.6807
groß	-11.681
Wissen	-11.681
▁lighting	-11.681
▁Besuch	-11.6817
Welt	-11.6818
▁scar	-11.682
▁tricks	-11.6821
was	-11.6825
▁gather	-11.6826
▁auto	-11.6829
▁benutzten	-11.6831
▁Option	-11.6832
▁scales	-11.6832
▁youth	-11.6833
▁Mäuse	-11.6833
▁Therapie	-11.6833
▁Toilette	-11.6834
▁verließ	-11.6834
▁gewaltige	-11.6834
▁passwords	-11.6836
▁Zoo	-11.6837
▁sensor	-11.6837
▁Konflikte	-11.6843
▁staatliche	-11.6846
▁volle	-11.6848
▁Halt	-11.6853
▁pal	-11.6855
quot	-11.6856
▁bias	-11.686
▁älteren	-11.6863
▁stations	-11.6865
▁adopt	-11.6866
▁Stamm	-11.6869
lb	-11.6872
▁Ted	-11.6874
firma	-11.6877
▁Gletscher	-11.6877
▁Jerusalem	-11.6877
▁Praxis	-11.6877
▁agricultural	-11.6877
▁genocide	-11.6877
▁shrimp	-11.6877
▁simplicity	-11.6877
▁sorgfältig	-11.6877
▁substance	-11.6877
▁verdoppelt	-11.6877
▁rabbi	-11.6877
▁bump	-11.6877
▁kühl	-11.6877
▁facial	-11.6877
▁gelehrt	-11.6877
▁Third	-11.6877
▁viral	-11.6877
▁1984	-11.6877
▁inequality	-11.6877
▁Produktivität	-11.6877
▁Luther	-11.6877
▁verbrauchen	-11.6877
▁Nahrungsmittel	-11.6877
▁Bürgerkrieg	-11.6877
hether	-11.6877
▁festgestellt	-11.6877
▁litt	-11.6878
▁leak	-11.6878
▁ausreichend	-11.6878
▁Schokolade	-11.6878
▁kochen	-11.6878
▁Kong	-11.6878
▁Protest	-11.6878
▁Bedenken	-11.6878
▁northern	-11.688
▁verteilen	-11.688
▁Lebensraum	-11.688
▁anfängt	-11.688
▁terrorists	-11.6881
ika	-11.6881
▁Rover	-11.6882
▁coach	-11.6882
▁granted	-11.6882
▁essence	-11.6883
▁ausdrücken	-11.6885
strahl	-11.6885
▁Watt	-11.6886
▁sin	-11.6889
▁Force	-11.6889
▁sink	-11.689
strecken	-11.689
▁coole	-11.6891
▁Hindernisse	-11.6891
▁Elektronen	-11.6894
▁crying	-11.6895
▁rating	-11.6895
60	-11.69
▁sexy	-11.6902
▁Angesicht	-11.6903
▁visited	-11.6903
jähriger	-11.6903
▁Tech	-11.6904
▁Achse	-11.6905
▁Islands	-11.6908
▁freundlich	-11.6908
▁komplexer	-11.6911
▁Len	-11.6912
fahrt	-11.6916
▁farmer	-11.6917
zeiten	-11.6917
▁formal	-11.6917
▁Prototypen	-11.6918
▁passing	-11.6923
eine	-11.6923
▁Ron	-11.694
▁pointed	-11.6941
▁geringe	-11.6941
▁jenem	-11.6943
▁Met	-11.695
post	-11.695
▁smarter	-11.6952
träge	-11.6958
▁edges	-11.6959
bte	-11.6961
half	-11.6962
sucht	-11.6965
▁Techniken	-11.6966
▁NGOs	-11.6968
förmige	-11.6968
▁Anwendungen	-11.6969
zel	-11.6976
▁jüngste	-11.6977
haben	-11.6977
▁Mill	-11.6978
▁profession	-11.6978
▁teenagers	-11.6983
▁Part	-11.6983
motor	-11.6987
▁Handeln	-11.6989
▁biologists	-11.6991
▁niedrig	-11.6996
schreiben	-11.6996
▁schau	-11.7
▁Kopie	-11.7001
▁Nachbar	-11.7004
issen	-11.7005
▁ecosystems	-11.7008
anlage	-11.7009
sicher	-11.7011
▁Walk	-11.7011
▁Lieder	-11.7013
▁gen	-11.7015
produktion	-11.7017
▁spa	-11.7019
▁Chi	-11.7019
▁musicians	-11.7022
▁continues	-11.7022
lagen	-11.7024
▁schl	-11.7024
▁umso	-11.7026
▁Resultate	-11.7029
▁prä	-11.7033
▁confront	-11.7034
▁opera	-11.7035
▁branch	-11.7037
lia	-11.7039
▁Handels	-11.704
▁east	-11.7042
▁Disney	-11.7043
▁Enkel	-11.7043
▁Entstehung	-11.7043
▁Großvater	-11.7043
▁Jewish	-11.7043
▁Schwanz	-11.7043
▁absurd	-11.7043
▁ehemalige	-11.7043
▁instinct	-11.7043
▁musikalische	-11.7043
▁origami	-11.7043
▁oxytocin	-11.7043
▁treibt	-11.7043
▁uncomfortable	-11.7043
▁vagina	-11.7043
▁verringern	-11.7043
▁Beitrag	-11.7043
▁Scheibe	-11.7043
▁hässlich	-11.7043
▁identisch	-11.7043
▁jeweils	-11.7043
▁nachdenkt	-11.7043
medizin	-11.7043
▁Mittlere	-11.7043
▁unfair	-11.7043
▁boundaries	-11.7043
▁motiviert	-11.7043
▁Montana	-11.7043
▁fliegt	-11.7043
▁Winkel	-11.7043
▁Autorität	-11.7044
▁Sunday	-11.7044
▁profile	-11.7044
▁Gleichheit	-11.7044
▁rettet	-11.7044
▁leise	-11.7044
▁sauce	-11.7045
▁isoliert	-11.7045
▁spark	-11.7045
▁acid	-11.7047
▁spell	-11.7047
▁laid	-11.7047
▁leer	-11.7047
▁Hin	-11.7048
▁mentor	-11.7048
▁rope	-11.7048
▁Management	-11.705
▁announced	-11.705
▁Auftrag	-11.705
▁identified	-11.7051
▁ensure	-11.7051
tiere	-11.7051
▁tired	-11.7052
▁Schon	-11.7052
▁EU	-11.7053
▁hook	-11.7053
▁weitermachen	-11.7053
▁Prüfung	-11.7054
▁geistige	-11.7054
▁Afghan	-11.7054
▁Bauch	-11.7061
▁positiven	-11.7061
öhn	-11.7061
▁Camp	-11.7063
▁proper	-11.7065
▁15-	-11.7065
aries	-11.7072
▁import	-11.7074
▁predicted	-11.7074
▁geworfen	-11.7076
▁failing	-11.7077
▁farming	-11.7077
▁Planung	-11.7078
digit	-11.7079
alter	-11.708
▁Köpfen	-11.7082
▁inspiring	-11.7082
▁Büchern	-11.7085
▁lasst	-11.7086
▁AM	-11.7086
▁crossing	-11.7087
tial	-11.7092
ulate	-11.7092
sweise	-11.7094
▁Katastrophen	-11.7094
▁gefährliche	-11.7096
▁lungs	-11.7099
▁dot	-11.71
▁Inhalte	-11.7101
▁Pra	-11.7102
▁wow	-11.7105
▁Schöne	-11.7105
▁Min	-11.7106
▁sleeping	-11.7106
▁tauchen	-11.7107
▁neighborhoods	-11.7113
quelle	-11.7113
versuch	-11.7114
▁underly	-11.7117
▁walks	-11.7121
▁printer	-11.7122
▁electronics	-11.7123
▁Sag	-11.7124
▁publish	-11.7125
▁privaten	-11.7126
▁wirtschaftlich	-11.7131
▁bother	-11.7132
spitze	-11.7133
▁quer	-11.7138
▁toys	-11.7139
Auf	-11.7143
▁landed	-11.7145
▁Seil	-11.7145
▁Carl	-11.7146
ugh	-11.7147
human	-11.7148
▁ne	-11.715
clock	-11.7152
▁Inseln	-11.7152
▁Tricks	-11.7153
▁Dichte	-11.7153
cha	-11.7154
▁prop	-11.7159
▁Vers	-11.7159
▁Fan	-11.7164
▁Animation	-11.7168
▁Muskel	-11.717
▁Wände	-11.717
▁Stille	-11.7171
Can	-11.7173
▁ausgehen	-11.7179
kontrolle	-11.718
bruch	-11.7181
zustand	-11.7182
note	-11.7182
▁liebt	-11.7183
▁Institution	-11.7183
free	-11.7189
unterricht	-11.7191
jahr	-11.7191
wide	-11.7192
▁surf	-11.7192
schiff	-11.7195
krise	-11.7199
fische	-11.7202
▁Magnet	-11.7203
▁wage	-11.7208
▁Gestalt	-11.721
tlich	-11.7211
▁virtue	-11.7211
▁perceive	-11.7212
▁label	-11.7212
▁psycho	-11.7212
▁compete	-11.7212
schaffung	-11.7213
▁Department	-11.7213
▁Kapazität	-11.7213
▁Obviously	-11.7213
▁Parlament	-11.7213
▁Privileg	-11.7213
▁aesthetic	-11.7213
▁akzeptiert	-11.7213
▁analysiert	-11.7213
▁district	-11.7213
▁fought	-11.7213
▁fraction	-11.7213
▁irrational	-11.7213
▁pandemic	-11.7213
▁reparieren	-11.7213
▁smooth	-11.7213
▁spectacular	-11.7213
▁twist	-11.7213
▁verschwindet	-11.7213
▁Baseball	-11.7213
▁Canyon	-11.7213
▁Hölle	-11.7213
▁Ruanda	-11.7213
▁Treppe	-11.7213
▁freiwillig	-11.7213
▁überprüfen	-11.7213
▁statistisch	-11.7213
▁reconstruct	-11.7213
▁angemessen	-11.7213
▁Thailand	-11.7213
▁trennen	-11.7213
▁synthetic	-11.7213
▁gewinnt	-11.7213
▁Ehemann	-11.7213
▁array	-11.7213
▁Unterwasser	-11.7213
▁Fußball	-11.7213
▁blicken	-11.7214
▁'60	-11.7214
▁Griff	-11.7214
▁Nike	-11.7214
▁Pocken	-11.7214
▁restore	-11.7214
▁enhance	-11.7214
▁unterhalb	-11.7214
▁discoveries	-11.7214
▁shine	-11.7215
▁Dennoch	-11.7215
▁apparently	-11.7215
▁urge	-11.7215
▁Schreibtisch	-11.7216
▁Louis	-11.7216
ada	-11.7216
▁Arabic	-11.7216
▁attitude	-11.7216
ites	-11.7218
▁neck	-11.7218
pur	-11.7221
▁stammen	-11.7222
four	-11.7223
▁angel	-11.7224
▁tied	-11.7225
▁zurückkommen	-11.7225
▁wash	-11.7227
▁geblieben	-11.723
▁photography	-11.7231
▁Ram	-11.7231
▁Nervenzellen	-11.7232
▁amongst	-11.7233
▁Weltall	-11.7234
▁crystal	-11.7234
▁dependent	-11.7235
▁successfully	-11.7235
▁Chip	-11.7236
▁gelb	-11.7237
▁institutional	-11.7238
▁Brand	-11.7238
▁Daniel	-11.7239
DP	-11.7239
▁suggesting	-11.724
▁RS	-11.724
▁reminded	-11.7241
▁participants	-11.7243
boden	-11.725
▁hearts	-11.7258
▁tri	-11.7258
tete	-11.7259
▁Fremden	-11.7259
▁Mich	-11.726
LT	-11.726
▁views	-11.726
hung	-11.7264
litz	-11.727
▁behaupte	-11.7271
▁balls	-11.7272
bett	-11.7278
▁religiösen	-11.7278
▁Ost	-11.7279
▁Hass	-11.728
12	-11.728
▁Brut	-11.7282
fluss	-11.7283
▁Far	-11.7287
▁bedeutende	-11.7291
▁rotate	-11.7295
▁nurse	-11.7295
▁Maße	-11.7296
▁operations	-11.7296
▁Mais	-11.7299
▁niedriger	-11.73
80	-11.7301
▁Ach	-11.7301
▁herstellt	-11.7303
▁focusing	-11.7303
100	-11.7305
ila	-11.7306
▁bewegte	-11.7309
fähig	-11.7309
▁Gebieten	-11.7311
staat	-11.7313
läuft	-11.7313
nor	-11.7313
▁Dichter	-11.7315
When	-11.7319
keep	-11.7322
▁trends	-11.7325
▁inches	-11.733
▁tägliche	-11.7331
▁Volks	-11.7337
▁Haushalt	-11.7338
▁dose	-11.734
▁Überzeugung	-11.7341
sgeschichte	-11.7343
▁weh	-11.7345
▁Spur	-11.7347
▁Best	-11.7347
▁speaker	-11.7349
▁clients	-11.7351
▁communications	-11.7354
▁Mauer	-11.7354
▁Neue	-11.7356
▁Bin	-11.7357
▁TEDTalks	-11.7357
▁rüber	-11.7358
▁drivers	-11.7359
▁treatments	-11.7359
▁endet	-11.7361
▁killer	-11.7361
▁Mist	-11.7362
gelassen	-11.7364
effekt	-11.7366
▁recover	-11.7371
▁landete	-11.7371
ups	-11.7371
baum	-11.7373
▁fließen	-11.7373
lk	-11.7373
▁construct	-11.7375
▁methods	-11.7377
▁leverage	-11.7382
▁transmit	-11.7382
temperatur	-11.7385
risiko	-11.7385
▁Erwärmung	-11.7385
▁Individuum	-11.7385
▁automobile	-11.7385
▁bedeutsam	-11.7385
▁circa	-11.7385
▁cliff	-11.7385
▁facility	-11.7385
▁resilience	-11.7385
▁spontan	-11.7385
▁struggling	-11.7385
▁ungeheuer	-11.7385
▁intuition	-11.7385
▁tackle	-11.7385
▁cheese	-11.7385
▁impression	-11.7385
▁comparison	-11.7385
▁mysterious	-11.7385
▁agency	-11.7385
▁convey	-11.7385
▁federal	-11.7385
▁domain	-11.7385
▁Regenwald	-11.7385
▁vernetzt	-11.7385
▁Arbeitsplätze	-11.7385
▁Offenheit	-11.7385
▁Things	-11.7386
▁Globalisierung	-11.7386
▁Alpha	-11.7386
▁Anerkennung	-11.7386
▁Mount	-11.7386
▁Gift	-11.7386
▁Gegenstand	-11.7386
einhalb	-11.7386
▁Doppel	-11.7386
▁Pfeil	-11.7387
▁official	-11.7387
▁Mother	-11.7387
▁infant	-11.7387
▁1900	-11.7387
▁isolated	-11.7388
▁selfish	-11.739
▁artistic	-11.7392
▁unlikely	-11.7392
▁lawyer	-11.7392
▁Seife	-11.7393
▁Entschuldigung	-11.7393
▁Zehn	-11.7394
▁soldier	-11.7395
▁Beute	-11.7395
▁Pl	-11.7395
▁Länge	-11.7395
▁südlich	-11.7395
▁enormen	-11.7395
▁surrounding	-11.7396
▁wora	-11.7396
▁gathering	-11.74
▁20.000	-11.7401
▁Beinen	-11.7402
cap	-11.7403
▁Fort	-11.7404
▁originally	-11.7404
▁lit	-11.7406
▁epi	-11.741
▁abgesehen	-11.741
▁hanging	-11.7413
▁Reg	-11.7415
▁expanding	-11.7416
▁chairs	-11.7419
▁Verbraucher	-11.7419
▁Fotografie	-11.7422
▁reicher	-11.7423
▁rent	-11.7423
40	-11.7425
▁Journalisten	-11.7427
▁virtuellen	-11.7427
▁einzusetzen	-11.7428
▁schm	-11.7429
▁wipe	-11.7434
ison	-11.7434
kur	-11.7435
usch	-11.7436
▁completed	-11.7436
▁Fernseher	-11.7443
▁Elektro	-11.7446
▁34	-11.7447
▁Oper	-11.7451
▁zukünftigen	-11.7453
▁altes	-11.7456
▁Einheiten	-11.7458
zumachen	-11.7462
▁Depressionen	-11.7464
binden	-11.7466
▁chi	-11.7474
▁Lehre	-11.7476
▁einsam	-11.7482
losigkeit	-11.7482
Ah	-11.7483
▁poster	-11.7488
▁allgemeinen	-11.7493
Kopf	-11.7494
▁scores	-11.7496
▁Pal	-11.7497
▁Schwer	-11.7499
▁Anreiz	-11.75
leiten	-11.7503
kunde	-11.7512
▁furchtbar	-11.7513
play	-11.7514
▁cra	-11.7515
▁Still	-11.7516
▁Fakt	-11.7516
▁Tätigkeit	-11.7516
geld	-11.7516
▁Prototyp	-11.7516
▁Auswirkung	-11.7517
▁böse	-11.7518
▁stores	-11.7519
▁answered	-11.7519
▁Gleichung	-11.7519
▁Bäumen	-11.7524
▁Trag	-11.7527
tau	-11.7527
▁ratio	-11.7528
▁bow	-11.7529
▁erinnerte	-11.753
▁erweitert	-11.7532
▁Talent	-11.7533
wor	-11.7535
▁Flasche	-11.7536
zahlen	-11.7539
▁strangers	-11.754
lten	-11.7546
▁ban	-11.7554
▁Feedback	-11.7554
▁govern	-11.7555
▁commit	-11.7558
männer	-11.756
▁Völker	-11.7561
▁Beschreibung	-11.7561
▁Kansas	-11.7561
▁Plätze	-11.7561
▁Society	-11.7561
▁arrow	-11.7561
▁erneuerbare	-11.7561
▁gegenwärtige	-11.7561
▁kombiniert	-11.7561
▁whatsoever	-11.7561
▁RNA	-11.7561
▁Through	-11.7561
▁trash	-11.7561
▁verlangen	-11.7561
▁mood	-11.7561
▁programmieren	-11.7561
▁Eigentum	-11.7561
▁erzielen	-11.7561
▁barrel	-11.7561
▁bathroom	-11.7561
▁erkunden	-11.7561
▁signature	-11.7561
▁ignorance	-11.7561
▁Mikroskop	-11.7561
▁auszudrücken	-11.7561
▁expectancy	-11.7561
▁colonies	-11.7561
▁erfasst	-11.7561
▁'90	-11.7561
▁shopping	-11.7561
▁subtle	-11.7561
▁Welle	-11.7562
▁begun	-11.7562
▁abgeschlossen	-11.7562
▁neat	-11.7562
▁Auflösung	-11.7562
▁merely	-11.7562
▁Lord	-11.7562
▁durchzuführen	-11.7563
▁footage	-11.7563
▁ignorieren	-11.7564
▁sicherstellen	-11.7564
▁hitting	-11.7565
gal	-11.7567
▁Einblick	-11.7567
▁Pläne	-11.7567
▁drawn	-11.7568
▁architectural	-11.7569
▁Kauf	-11.757
▁vorgestellt	-11.757
▁radically	-11.757
▁Güter	-11.7571
▁dinosaur	-11.7572
▁consequence	-11.7572
▁citizen	-11.7572
▁psychologische	-11.7573
▁fiber	-11.7576
▁nerve	-11.7579
▁umzusetzen	-11.758
▁Tun	-11.7581
▁einziges	-11.7584
▁ausführen	-11.7584
▁Sei	-11.7585
▁wünschen	-11.7592
▁Bomben	-11.7593
▁pot	-11.7594
▁zusammenarbeite	-11.7594
fal	-11.7597
lange	-11.7598
kamera	-11.7598
▁gases	-11.76
▁Berechnungen	-11.7601
stick	-11.7603
▁Spuren	-11.7606
▁mimic	-11.7609
away	-11.7609
▁Altern	-11.761
▁camel	-11.7614
cla	-11.7618
vier	-11.7619
▁Pol	-11.762
dauer	-11.7623
▁Besitzer	-11.7625
▁afterwards	-11.7625
werten	-11.7627
▁einiges	-11.7628
▁greifen	-11.7637
▁kn	-11.7638
Ko	-11.7638
▁ankommt	-11.7643
▁picking	-11.7647
▁ethic	-11.7648
gesellschaft	-11.7648
▁bot	-11.765
▁pit	-11.7651
▁Hy	-11.7657
▁Grundstück	-11.7659
▁unabhängige	-11.7662
▁einzigartige	-11.7663
Bahn	-11.7671
eben	-11.7671
pflanzen	-11.7679
▁Bewusstseins	-11.7682
▁bang	-11.7682
▁körperliche	-11.7684
park	-11.7686
▁Poster	-11.7688
Zu	-11.7689
▁bars	-11.7689
▁Höhle	-11.7691
▁Blase	-11.7696
tauchen	-11.7697
▁virtuelle	-11.7698
produkt	-11.77
lern	-11.7702
▁Mannes	-11.7705
"?	-11.7706
▁reiste	-11.771
▁Tele	-11.7717
▁Dad	-11.7719
▁banks	-11.772
▁Fahrt	-11.772
Aus	-11.7722
▁Keiner	-11.7726
▁prior	-11.7727
verbrauch	-11.7732
▁immediate	-11.7734
▁exploit	-11.7738
▁günstig	-11.7738
Nullsummen	-11.7739
gewebe	-11.7739
kreuz	-11.7739
▁Allerdings	-11.7739
▁Balance	-11.7739
▁Befehl	-11.7739
▁Buddha	-11.7739
▁Erziehung	-11.7739
▁FDA	-11.7739
▁Konzentration	-11.7739
▁Töchter	-11.7739
▁Wohlbefinden	-11.7739
▁Zufriedenheit	-11.7739
▁contribution	-11.7739
▁expansion	-11.7739
▁involviert	-11.7739
▁optimal	-11.7739
▁präzise	-11.7739
▁schlussendlich	-11.7739
▁vergleichbar	-11.7739
▁Babies	-11.7739
▁Rechner	-11.7739
▁theoretisch	-11.7739
▁valid	-11.7739
▁Court	-11.7739
▁heiraten	-11.7739
▁Benzin	-11.7739
▁collaborative	-11.7739
▁reinvent	-11.7739
▁Treibstoff	-11.774
▁Arbeitsplatz	-11.774
▁Lebensqualität	-11.774
▁stunt	-11.774
▁Kluft	-11.774
▁Kreise	-11.774
▁attractive	-11.774
▁forgotten	-11.7741
gewinn	-11.7742
▁dumb	-11.7743
▁Never	-11.7744
rger	-11.7744
▁extinction	-11.7745
▁sensory	-11.7745
▁Dauer	-11.7745
▁damn	-11.7746
▁Frequenz	-11.7746
▁mindset	-11.7746
▁garage	-11.7746
▁Santa	-11.7746
▁nurses	-11.7749
▁Weltbank	-11.7749
▁Way	-11.7751
▁Veranstaltung	-11.7751
▁medication	-11.7752
locked	-11.7752
▁variation	-11.7752
▁drone	-11.7753
▁Marine	-11.7753
▁improvement	-11.7754
▁ending	-11.7754
▁openness	-11.7755
▁reef	-11.7755
▁Hill	-11.7756
▁Meme	-11.7758
▁dreimal	-11.7759
▁Jane	-11.776
▁threats	-11.776
▁Klar	-11.7761
▁Einmal	-11.7762
▁Sieben	-11.7764
▁egg	-11.7765
▁ausgegeben	-11.7766
▁strongly	-11.7766
▁additional	-11.7768
▁Betrachten	-11.7769
▁Wurzeln	-11.777
▁Kriege	-11.7772
▁Störungen	-11.7772
hnlich	-11.7772
▁grad	-11.7773
▁auftreten	-11.7777
▁Ernst	-11.778
▁Sollte	-11.778
▁bound	-11.7782
lampe	-11.7783
▁club	-11.7785
scher	-11.7787
▁craft	-11.7789
▁manual	-11.7793
▁woke	-11.7793
▁intensiv	-11.7795
▁conflicts	-11.7801
▁abstrakte	-11.7806
▁danken	-11.7807
▁rob	-11.7807
virus	-11.7809
▁Schichten	-11.781
▁entdeckten	-11.781
▁exception	-11.7813
▁founded	-11.7813
▁demokratische	-11.7814
▁Steine	-11.7814
gung	-11.7816
thiopien	-11.7819
▁documents	-11.7821
▁Magazin	-11.7823
▁vieler	-11.7828
halte	-11.7828
ters	-11.7834
▁compromise	-11.7835
▁Kommunikations	-11.7836
▁Erkenntnisse	-11.7837
geist	-11.7838
sterblichkeit	-11.7838
ui	-11.7839
▁physischen	-11.784
▁teilnehmen	-11.7842
fiel	-11.7843
▁fuels	-11.7844
▁grob	-11.7848
fertig	-11.7851
▁needle	-11.7856
▁pr	-11.7861
Test	-11.7863
ließ	-11.7863
▁Has	-11.7864
▁Schriftsteller	-11.7869
▁einziger	-11.787
block	-11.787
leistung	-11.7874
▁Fels	-11.7877
▁attribute	-11.7878
▁Wohnung	-11.7881
▁startete	-11.7885
▁joint	-11.7886
▁Bra	-11.7888
▁assumptions	-11.7892
▁billiger	-11.7893
fehler	-11.7894
gesichts	-11.7896
decke	-11.7899
▁Königin	-11.7903
▁resist	-11.792
aktivität	-11.792
▁incident	-11.7921
▁schi	-11.7921
▁Flughafen	-11.7921
▁Oklahoma	-11.7921
▁Orchester	-11.7921
▁Philadelphia	-11.7921
▁Pyramide	-11.7921
▁capabilities	-11.7921
▁devil	-11.7921
▁diskutiert	-11.7921
▁ethnic	-11.7921
▁geredet	-11.7921
▁gradually	-11.7921
▁inevitable	-11.7921
▁methane	-11.7921
▁primarily	-11.7921
▁unangenehm	-11.7921
▁Apollo	-11.7921
▁audio	-11.7921
▁excuse	-11.7921
▁silly	-11.7921
▁whistle	-11.7921
▁Gerüst	-11.7921
▁plain	-11.7921
microbial	-11.7921
▁figuring	-11.7921
▁Herkunft	-11.7921
▁mild	-11.7921
▁träumen	-11.7921
▁umfasst	-11.7921
▁klingen	-11.7922
▁appearance	-11.7922
▁Indus	-11.7922
▁bullet	-11.7922
▁permission	-11.7922
▁heilige	-11.7922
▁Überall	-11.7923
▁Statt	-11.7923
▁portion	-11.7924
▁winner	-11.7924
▁industries	-11.7925
▁homework	-11.7925
▁globalization	-11.7925
schuss	-11.7926
▁Eingriff	-11.7929
▁Erforschung	-11.7931
▁interpretation	-11.7931
▁articles	-11.7932
NG	-11.7932
geräte	-11.7932
▁vo	-11.7934
▁aufregende	-11.7934
▁profoundly	-11.7934
▁daughters	-11.7934
▁Früher	-11.7935
▁Model	-11.7935
▁shocked	-11.7936
▁angetrieben	-11.7937
▁predator	-11.7937
▁Route	-11.7937
▁Bescheid	-11.7938
▁Tell	-11.7938
▁werdet	-11.794
▁versagt	-11.7942
▁informed	-11.7944
▁schießen	-11.7947
▁diesmal	-11.7948
▁Trends	-11.795
▁beliebige	-11.7951
▁Mall	-11.7957
▁unver	-11.7957
▁aufeinander	-11.7958
▁agent	-11.796
▁Station	-11.796
▁Raketen	-11.7964
▁Sen	-11.7967
▁wette	-11.7968
▁tear	-11.7968
▁Erkrankungen	-11.7968
▁seats	-11.7969
▁bucks	-11.7971
▁Pilz	-11.7972
▁Symbole	-11.7974
▁Füßen	-11.7974
▁shirt	-11.7974
▁Figuren	-11.7975
ife	-11.7975
wah	-11.7976
▁trucks	-11.7979
▁sicherer	-11.7982
▁sendet	-11.7983
▁studierte	-11.7984
▁Anreize	-11.7986
hlen	-11.7987
▁helpful	-11.7987
▁Amt	-11.7988
▁supported	-11.799
▁MA	-11.799
wache	-11.7995
gesehen	-11.7996
▁wundervoll	-11.7997
entwicklung	-11.8002
▁beg	-11.8004
▁Taten	-11.8011
szeit	-11.8018
brachte	-11.802
▁schrieben	-11.8021
▁Tut	-11.8028
Mach	-11.8032
▁wartet	-11.8033
ologische	-11.8034
▁einstellen	-11.8036
hundert	-11.8037
▁180	-11.8038
▁fühlten	-11.8039
Cola	-11.8041
▁Med	-11.8042
▁Institut	-11.8042
▁legten	-11.8043
preis	-11.8044
iter	-11.8048
▁Hut	-11.8049
▁Tausenden	-11.8049
▁schönes	-11.8051
▁Letztes	-11.8051
holz	-11.8057
▁Zeitungen	-11.8058
▁lokal	-11.8058
▁sla	-11.8058
▁bubbles	-11.806
▁panels	-11.806
▁Held	-11.8063
▁Köpfe	-11.8064
lust	-11.8066
▁tritt	-11.8066
▁erfuhr	-11.8068
▁schreibe	-11.8068
▁Skulptur	-11.807
▁Journalist	-11.8076
▁Rauch	-11.8077
▁surfaces	-11.8078
fliegen	-11.8082
law	-11.8082
▁Autoren	-11.8085
▁Jay	-11.8088
▁partly	-11.8089
▁witness	-11.8096
▁reports	-11.8099
▁precise	-11.8101
▁exhibit	-11.8101
▁suchten	-11.8104
pflanzt	-11.8106
▁1997	-11.8106
▁Analogie	-11.8106
▁Anhänger	-11.8106
▁Intuition	-11.8106
▁Kohlendioxid	-11.8106
▁Optimismus	-11.8106
▁Sylvia	-11.8106
▁beeindruckt	-11.8106
▁bewältigen	-11.8106
▁category	-11.8106
▁dictionary	-11.8106
▁fabulous	-11.8106
▁facilities	-11.8106
▁gegessen	-11.8106
▁participation	-11.8106
▁verhindert	-11.8106
▁wheelchair	-11.8106
▁zwölf	-11.8106
▁elected	-11.8106
▁Offensichtlich	-11.8106
▁üben	-11.8106
▁beschützen	-11.8106
▁motivieren	-11.8106
▁grausam	-11.8106
gewalt	-11.8106
▁ermutigen	-11.8106
▁Branche	-11.8106
▁ownership	-11.8106
organ	-11.8106
▁authorities	-11.8107
▁programmiert	-11.8107
▁baseball	-11.8107
▁Wright	-11.8107
▁Methan	-11.8107
▁Simon	-11.8107
▁kiss	-11.8107
▁Spenden	-11.8107
▁assignment	-11.8107
▁islamische	-11.8107
▁spray	-11.8107
▁Royal	-11.8108
▁Genauso	-11.8108
▁keyboard	-11.8108
▁profitieren	-11.8108
▁Without	-11.8108
▁burst	-11.8108
▁Anzeichen	-11.8109
▁Sturm	-11.8109
▁doors	-11.8109
▁editor	-11.811
▁5.000	-11.811
▁Tiger	-11.8111
▁Digital	-11.8112
▁neulich	-11.8113
inal	-11.8114
bble	-11.8114
▁Geschäftsmodell	-11.8115
alität	-11.8115
▁confident	-11.8116
pflege	-11.8116
▁Food	-11.8117
▁Filter	-11.8118
▁conducted	-11.8119
▁Schülern	-11.812
▁Liter	-11.8125
▁suggested	-11.8127
▁Pferde	-11.8131
▁erzählten	-11.8131
▁translated	-11.8131
▁refugee	-11.8131
▁emerged	-11.8131
▁discipline	-11.8132
▁Systems	-11.8133
▁nets	-11.8137
▁determined	-11.8137
▁targets	-11.8143
▁photographed	-11.8144
▁erfolgreiche	-11.8145
▁Amerikas	-11.815
▁häufiger	-11.8151
kosten	-11.8155
▁Archiv	-11.8156
▁gewachsen	-11.8157
▁Neun	-11.817
▁anzugehen	-11.8171
rage	-11.8172
▁fehlende	-11.8175
▁zugleich	-11.8177
▁expecting	-11.8179
dan	-11.8179
▁Genen	-11.8179
ept	-11.8179
▁ships	-11.8181
▁keinem	-11.8182
▁parasite	-11.8187
▁richer	-11.8193
krankheiten	-11.8193
▁vermute	-11.8195
Ist	-11.8196
▁fuhren	-11.82
▁Operationen	-11.8203
ngste	-11.8204
▁blieben	-11.8206
load	-11.8213
ching	-11.8215
▁Versuchen	-11.8215
▁lu	-11.8216
ched	-11.8216
osis	-11.822
▁veröffentlichte	-11.822
▁sacrifice	-11.8222
▁Magazine	-11.8224
▁Gefahren	-11.8225
▁jet	-11.8225
zog	-11.8227
related	-11.8228
♫	-11.8228
▁duck	-11.8236
▁effizient	-11.8236
▁headed	-11.8239
▁gemeinnützige	-11.8239
▁evolutionäre	-11.824
▁Asian	-11.8243
▁nutzten	-11.8245
zone	-11.8245
water	-11.8248
▁tribes	-11.8248
▁Jeden	-11.8256
sländer	-11.8264
▁anstellen	-11.8269
arian	-11.8269
▁MO	-11.827
▁Leistungen	-11.827
flächen	-11.8271
▁effizienter	-11.8274
▁Waren	-11.8276
▁nano	-11.8278
▁preserve	-11.828
▁prepare	-11.828
▁Gelände	-11.8281
▁spiele	-11.8283
▁Neben	-11.8285
zulassen	-11.829
▁luck	-11.8291
▁distinct	-11.8291
▁Mögliche	-11.8293
▁Alkohol	-11.8295
▁NSA	-11.8295
▁Urknall	-11.8295
▁bestätigt	-11.8295
▁impressive	-11.8295
▁konstruiert	-11.8295
▁nördlich	-11.8295
▁purchase	-11.8295
▁recipe	-11.8295
blätter	-11.8295
▁Church	-11.8295
▁Fettleibigkeit	-11.8295
▁Himalaya	-11.8295
▁Jupiter	-11.8295
▁Käse	-11.8295
▁Nährstoffe	-11.8295
▁Stewart	-11.8295
▁außerordentlich	-11.8295
▁choosing	-11.8295
▁dialogue	-11.8295
▁fragile	-11.8295
▁grandchildren	-11.8295
▁trajectory	-11.8295
▁unbelievable	-11.8295
▁unheimlich	-11.8295
▁vergrößert	-11.8295
▁verstärkt	-11.8295
▁leaf	-11.8295
▁lenken	-11.8295
▁Nepal	-11.8295
▁Mittagessen	-11.8295
▁bribe	-11.8295
▁Distanz	-11.8295
▁Bandbreite	-11.8295
▁erlangen	-11.8295
▁künstlerische	-11.8295
▁Genetik	-11.8295
▁irgendwas	-11.8295
▁Rückenmark	-11.8295
▁Abendessen	-11.8295
▁Pazifik	-11.8295
▁anonymous	-11.8296
▁'70	-11.8296
▁kidney	-11.8296
▁Larry	-11.8296
▁fool	-11.8296
▁Versagen	-11.8296
▁Menschlichkeit	-11.8297
▁unsicher	-11.8298
▁Mischung	-11.8298
▁improving	-11.8298
▁frequency	-11.8301
▁briefly	-11.8301
▁Hersteller	-11.8303
▁attend	-11.8303
▁Interview	-11.8304
▁160	-11.8304
▁Oel	-11.8305
▁präsentieren	-11.8305
▁bewirkt	-11.8305
▁anxiety	-11.8306
▁proposed	-11.8308
öse	-11.8308
▁DR	-11.8309
▁berechnet	-11.831
▁extended	-11.8311
▁aktiviert	-11.8311
▁Work	-11.8312
▁mixed	-11.8314
▁Asteroiden	-11.8314
▁terror	-11.8317
▁physician	-11.8319
▁physicist	-11.8319
▁insect	-11.832
▁None	-11.832
▁warf	-11.832
▁auftauchen	-11.8321
▁Hätte	-11.8322
▁Vorhersagen	-11.8324
▁Christian	-11.8327
▁musician	-11.8328
▁Korean	-11.8328
▁Play	-11.8329
▁Angestellten	-11.8329
▁universelle	-11.8329
▁Mel	-11.8329
▁climbing	-11.8329
gebaut	-11.833
▁highway	-11.8333
▁faszinierende	-11.8336
▁funded	-11.8336
▁beobachtete	-11.8338
▁Genome	-11.8339
▁herab	-11.834
graph	-11.8342
▁difficulty	-11.8343
▁zugeben	-11.8344
▁Sorry	-11.8344
▁Kommentar	-11.8345
▁schließt	-11.8345
▁Reden	-11.8345
▁designs	-11.8345
▁wozu	-11.8346
▁schaffte	-11.8349
▁Real	-11.8349
▁Flu	-11.8351
▁sticks	-11.8352
▁gefahren	-11.836
▁mat	-11.8366
reiche	-11.8366
gänge	-11.8366
▁plays	-11.8366
▁stranger	-11.8366
▁Austausch	-11.8368
▁Rate	-11.8373
zutreten	-11.8374
▁sentences	-11.8374
▁elections	-11.8374
▁chemischen	-11.8377
haften	-11.838
▁geringer	-11.8393
▁interestingly	-11.8395
▁explaining	-11.8396
phe	-11.8397
ange	-11.8398
▁supporting	-11.8399
▁rats	-11.8402
lösen	-11.8406
▁Weiß	-11.841
richten	-11.8411
ways	-11.8414
▁Spin	-11.8416
▁Wüsten	-11.8418
Boot	-11.8421
streben	-11.8422
▁wunderschönen	-11.8425
▁zweitens	-11.8426
▁Beobachtung	-11.8428
▁trage	-11.8432
▁gewöhnliche	-11.8433
▁controls	-11.8438
▁breit	-11.8439
liege	-11.8441
oy	-11.8441
▁distinguish	-11.8441
organisation	-11.8443
▁Lücke	-11.8444
▁Kolonie	-11.8444
▁Berechnung	-11.8444
▁Falle	-11.8445
teln	-11.8445
gemeinschaft	-11.8447
▁Zentral	-11.8454
▁observe	-11.8455
▁innovations	-11.8456
▁verständlich	-11.8459
▁beginne	-11.8459
▁derzeitige	-11.8461
Mein	-11.8462
▁hing	-11.8466
▁refugees	-11.8467
▁bereitet	-11.8472
▁sail	-11.8473
▁knock	-11.8478
smittel	-11.8481
▁fortunate	-11.8482
▁cats	-11.8486
stadt	-11.8486
rechnung	-11.8486
▁Kranken	-11.8487
▁Schnell	-11.8487
fabrik	-11.8487
▁Bangladesh	-11.8487
▁Empathie	-11.8487
▁Immunsystem	-11.8487
▁Norwegen	-11.8487
▁Peace	-11.8487
▁Technology	-11.8487
▁abilities	-11.8487
▁akademische	-11.8487
▁astonishing	-11.8487
▁aufmerksam	-11.8487
▁begegnet	-11.8487
▁biodiversity	-11.8487
▁categories	-11.8487
▁combat	-11.8487
▁erstaunt	-11.8487
▁experiencing	-11.8487
▁kombinieren	-11.8487
▁magnitude	-11.8487
▁multinational	-11.8487
▁reducing	-11.8487
▁stattfinden	-11.8487
▁steigern	-11.8487
▁threshold	-11.8487
▁unprecedented	-11.8487
▁Tendenz	-11.8487
▁beneath	-11.8487
▁chaotisch	-11.8487
▁engagiert	-11.8487
▁mutual	-11.8487
▁verurteilt	-11.8487
▁Väter	-11.8487
▁valley	-11.8487
▁begleitet	-11.8487
▁buried	-11.8487
▁Bonobo	-11.8487
▁Horizont	-11.8487
▁Blickwinkel	-11.8487
▁Gewässer	-11.8487
forscher	-11.8488
▁Bindung	-11.8488
▁programming	-11.8488
▁Flüsse	-11.8488
▁nonprofit	-11.8488
▁marketplace	-11.8488
▁uralte	-11.8488
▁Panik	-11.8488
▁consist	-11.8488
▁passenger	-11.8488
▁Roger	-11.8488
And	-11.8488
▁winning	-11.8488
▁Snowden	-11.8489
▁Tinte	-11.8489
stone	-11.8489
▁finanzieren	-11.849
▁campus	-11.849
▁Chor	-11.8491
▁4,000	-11.8491
▁Kurzem	-11.8491
▁compassionate	-11.8491
▁Fair	-11.8491
▁Add	-11.8491
▁confused	-11.8492
▁highlight	-11.8492
▁zweieinhalb	-11.8492
▁Abstand	-11.8492
freie	-11.8492
bst	-11.8493
▁imagery	-11.8493
feuer	-11.8493
Is	-11.8493
▁Banken	-11.8494
▁Ausschnitt	-11.8494
▁Besten	-11.8494
▁Mechanismus	-11.8494
▁vielerlei	-11.8495
▁Halb	-11.8495
▁imaging	-11.8496
▁Manager	-11.8496
▁slave	-11.8497
▁diagnosed	-11.8497
▁Kunststoff	-11.8498
▁millimeter	-11.8498
▁stieß	-11.8498
▁Termin	-11.8499
▁Merkmale	-11.8501
▁installation	-11.8501
▁trivial	-11.8502
▁Cloud	-11.8502
▁fastest	-11.8503
▁gefüllt	-11.8504
▁anzuschauen	-11.8505
▁sank	-11.851
▁Leser	-11.851
asse	-11.8511
durch	-11.8513
uell	-11.8513
rufe	-11.8514
▁Einzelnen	-11.8514
▁remaining	-11.8514
▁Maria	-11.8516
tät	-11.8516
liches	-11.8517
möglichkeiten	-11.8517
▁unable	-11.8518
▁elephants	-11.8522
suche	-11.8522
▁cable	-11.8523
vy	-11.8523
▁pole	-11.8525
▁muslimische	-11.8528
▁hunter	-11.853
▁richtet	-11.8531
▁Chirurgen	-11.8531
tausch	-11.8531
▁geschlagen	-11.8535
▁influenced	-11.8538
▁dozens	-11.8539
▁covering	-11.8541
▁eingestellt	-11.8542
▁improved	-11.8545
read	-11.8546
▁ink	-11.8548
▁throwing	-11.8552
▁Werten	-11.8565
▁Dra	-11.8572
▁sits	-11.8573
▁trauma	-11.8574
▁einnehmen	-11.8581
▁Elite	-11.8584
▁Messer	-11.859
▁echter	-11.8592
▁Meinungen	-11.8593
▁tight	-11.8596
station	-11.8596
ologists	-11.8599
▁umfassende	-11.86
▁sustain	-11.8601
▁misst	-11.8602
▁meal	-11.8605
▁flows	-11.8607
ionen	-11.8608
▁Gebäudes	-11.8608
▁Sich	-11.8609
front	-11.8611
▁Ch	-11.8614
Star	-11.862
▁via	-11.8624
maß	-11.8625
▁ci	-11.8626
▁Klassen	-11.8628
field	-11.8632
million	-11.8633
▁shaped	-11.8636
▁Schlange	-11.8641
▁inspirierend	-11.8641
▁Umfrage	-11.8641
cat	-11.8642
fahrer	-11.8642
▁Arabisch	-11.8642
▁Chirurg	-11.8642
▁Einrichtung	-11.8643
ean	-11.865
▁gewöhnlich	-11.8655
Gen	-11.8656
▁wirft	-11.8658
15	-11.8658
▁discuss	-11.8658
▁computation	-11.8661
▁kurzer	-11.8662
▁Lehrern	-11.8665
▁Güte	-11.8672
▁Extra	-11.8673
▁100-	-11.8677
-3	-11.8678
▁Mord	-11.8681
oon	-11.8681
ordnung	-11.8681
▁forgot	-11.8682
▁Trotz	-11.8682
nutzung	-11.8682
▁Babbage	-11.8683
▁Council	-11.8683
▁Dezember	-11.8683
▁Dopamin	-11.8683
▁OECD	-11.8683
▁Thunfisch	-11.8683
▁Urlaub	-11.8683
▁Versicherung	-11.8683
▁elderly	-11.8683
▁reproduce	-11.8683
▁tweet	-11.8683
▁uniform	-11.8683
▁widmen	-11.8683
▁züchten	-11.8683
▁ärmsten	-11.8683
▁Tibet	-11.8683
▁creator	-11.8683
▁injury	-11.8683
▁innocent	-11.8683
▁probieren	-11.8683
▁pulse	-11.8683
▁Tafel	-11.8683
▁verboten	-11.8683
▁Joshua	-11.8683
▁tongue	-11.8683
▁zutiefst	-11.8683
▁gesünder	-11.8683
▁Apparat	-11.8683
▁Tesla	-11.8683
▁Tropfen	-11.8683
schmerz	-11.8683
▁ongoing	-11.8683
▁speichern	-11.8684
▁Programmierer	-11.8684
generating	-11.8684
▁Pink	-11.8684
▁Wollen	-11.8684
▁marry	-11.8684
▁Geheimnisse	-11.8684
▁Down	-11.8685
▁Bundesstaat	-11.8685
▁genetically	-11.8685
▁Word	-11.8685
▁Heilung	-11.8685
▁Riff	-11.8685
▁instant	-11.8685
▁peaceful	-11.8686
▁continuing	-11.8686
▁Arzneimittel	-11.8687
▁beachten	-11.8687
▁Stone	-11.8687
▁verhält	-11.8687
▁workplace	-11.8688
▁140	-11.8688
▁intersection	-11.8688
▁fürchte	-11.8691
▁Konstruktion	-11.8691
▁established	-11.8692
▁angeschaut	-11.8693
▁competitive	-11.8693
▁suggestion	-11.8695
▁rarely	-11.8695
▁surprisingly	-11.8695
▁accidents	-11.8697
drücke	-11.8697
▁schwierigen	-11.8697
riss	-11.8698
▁significantly	-11.87
▁fatal	-11.8702
▁Secondly	-11.8704
▁bewerten	-11.8708
▁writers	-11.8709
▁palm	-11.871
▁detailed	-11.8711
▁bezieht	-11.8713
▁Greek	-11.8714
▁assumption	-11.8715
▁TEDTalk	-11.8716
▁Studierenden	-11.8718
▁toy	-11.8719
mate	-11.8721
▁served	-11.8721
▁gods	-11.8722
uk	-11.8722
▁ansprechen	-11.8724
▁entschlossen	-11.8726
▁aufzunehmen	-11.8727
▁Bergen	-11.8728
▁Lee	-11.8729
▁Blasen	-11.8731
▁arise	-11.8732
gene	-11.8736
▁Küchen	-11.8738
▁öffnete	-11.8738
▁verbreitete	-11.8738
▁Rau	-11.8741
▁bombs	-11.8746
▁rennen	-11.8746
▁tiefen	-11.8747
▁journal	-11.8747
▁sisters	-11.8749
70	-11.8751
▁mono	-11.8752
▁caring	-11.8753
right	-11.8755
▁Alternativen	-11.8762
▁eigen	-11.8763
active	-11.8764
▁spielten	-11.8765
rack	-11.8767
▁Küsten	-11.8767
▁Bel	-11.8775
▁hackers	-11.8783
▁Genie	-11.8784
ichen	-11.879
kopf	-11.879
▁roots	-11.8797
page	-11.8802
schaut	-11.8804
lash	-11.8806
rap	-11.881
ante	-11.8812
school	-11.8816
▁traditions	-11.8817
▁gro	-11.8818
▁tar	-11.8819
flow	-11.8819
steigt	-11.882
▁fate	-11.8828
known	-11.8832
▁43	-11.8834
tanz	-11.8835
▁Spe	-11.8835
▁erfand	-11.8838
▁Dimension	-11.8839
▁wüsste	-11.884
▁Lunge	-11.884
▁irre	-11.8841
▁award	-11.8845
▁Tode	-11.8846
Lass	-11.8846
▁nette	-11.8848
▁pu	-11.8858
zy	-11.8858
▁Beck	-11.8858
▁Religionen	-11.8861
▁ankommen	-11.8861
▁AT	-11.8862
zusehen	-11.8867
worth	-11.887
▁Fahr	-11.887
ado	-11.8872
▁Formel	-11.8873
▁lass	-11.8874
▁exponential	-11.8878
▁Dritte	-11.8879
synchron	-11.8882
▁shore	-11.8883
Krankenschwester	-11.8883
▁December	-11.8883
▁Nairobi	-11.8883
▁Norway	-11.8883
▁bzw	-11.8883
▁dokumentiert	-11.8883
▁einschließlich	-11.8883
▁enterprise	-11.8883
▁erheblich	-11.8883
▁erledigt	-11.8883
▁hemisphere	-11.8883
▁interior	-11.8883
▁leather	-11.8883
▁optimism	-11.8883
▁stimulate	-11.8883
▁strategic	-11.8883
▁verknüpft	-11.8883
▁verwirrt	-11.8883
▁Arduino	-11.8883
zentren	-11.8883
▁Emily	-11.8883
▁bedienen	-11.8883
▁gewissermaßen	-11.8883
▁Italian	-11.8883
▁cruel	-11.8883
▁ultra	-11.8883
flasche	-11.8883
▁Princeton	-11.8884
▁MoMA	-11.8884
▁Unsicherheit	-11.8884
▁Somebody	-11.8884
▁slavery	-11.8884
▁Auffassung	-11.8884
▁Franklin	-11.8884
▁senken	-11.8884
▁'80	-11.8884
▁transformative	-11.8884
▁flee	-11.8885
▁Nicole	-11.8885
▁gesucht	-11.8885
▁Amazonas	-11.8885
▁bored	-11.8885
▁redesign	-11.8886
▁Alice	-11.8886
schritt	-11.8886
▁Leone	-11.8886
▁Nachmittag	-11.8886
▁cake	-11.8888
▁Später	-11.8889
▁ausländische	-11.8889
▁trainieren	-11.8889
▁Beach	-11.889
▁Tja	-11.889
flug	-11.889
▁initially	-11.8891
▁tollen	-11.8893
▁Northern	-11.8893
▁Salz	-11.8893
▁50.000	-11.8895
▁gathered	-11.8895
▁30,000	-11.8896
▁errichten	-11.8896
▁Ersatz	-11.8896
▁Ego	-11.8897
▁Schlagzeilen	-11.8898
▁Menschenrechte	-11.8898
▁suffered	-11.8902
▁beer	-11.8902
▁Kreislauf	-11.8905
▁burned	-11.8905
▁Regal	-11.8906
▁Fu	-11.8908
▁monitoring	-11.891
▁jüngere	-11.8911
▁städtischen	-11.8912
▁Allgemeinen	-11.8915
spiele	-11.8918
▁incentive	-11.8919
▁stages	-11.892
▁bee	-11.892
ware	-11.8923
▁vorkommen	-11.8923
kehr	-11.8924
▁Haltung	-11.8924
schrie	-11.8927
▁included	-11.8929
▁offiziell	-11.8931
ctic	-11.8933
▁proof	-11.8933
führer	-11.8933
artig	-11.8936
▁punch	-11.8937
▁channels	-11.8937
▁Darm	-11.8938
ches	-11.8939
▁weinen	-11.894
▁holds	-11.8945
▁irgendeiner	-11.8948
kette	-11.8948
▁arabische	-11.895
reisen	-11.8954
▁tent	-11.896
▁Bahn	-11.896
▁lagen	-11.896
▁cartoons	-11.8961
pfel	-11.8965
▁Interaktionen	-11.8968
▁schickten	-11.8971
▁entsprechend	-11.8972
▁Prozesses	-11.8974
▁Verkehrs	-11.8975
▁Geburts	-11.8986
▁einzig	-11.8987
nahmen	-11.8987
▁dünne	-11.8987
gefangen	-11.8988
▁tumors	-11.8989
azi	-11.8989
▁malen	-11.8993
▁vierten	-11.9
▁Mom	-11.9003
▁benötigte	-11.9004
▁Motoren	-11.9004
▁homeless	-11.9004
für	-11.9006
▁Hang	-11.9017
▁finanzielle	-11.9018
krank	-11.902
Modell	-11.902
Sahara	-11.902
interest	-11.9021
Bild	-11.9021
▁drag	-11.9022
▁navigate	-11.9024
elect	-11.9026
▁übliche	-11.903
▁Kommentare	-11.9033
▁remembered	-11.9036
Li	-11.9036
▁Vereinte	-11.9037
▁Objekten	-11.9038
fold	-11.9039
hold	-11.9041
▁erschien	-11.9043
linear	-11.9044
labor	-11.9046
Up	-11.9047
▁custom	-11.9048
▁classical	-11.9049
trick	-11.9049
▁Han	-11.9052
rische	-11.9052
▁reactions	-11.9055
▁125	-11.9058
▁Dreh	-11.9059
wege	-11.9061
▁reale	-11.9064
teten	-11.9068
▁schafften	-11.907
▁künstlich	-11.9071
▁drones	-11.9072
▁langfristige	-11.9075
▁zweites	-11.9076
▁lean	-11.9076
▁konzentrierte	-11.9078
▁gaps	-11.9078
▁lawyers	-11.9079
▁ökologische	-11.9079
mitglieder	-11.9083
▁Jordan	-11.9087
kapital	-11.9087
kämpfe	-11.9087
▁Berührung	-11.9087
kräftig	-11.9087
▁Bangalore	-11.9087
▁Craig	-11.9087
▁Demonstration	-11.9087
▁Jazz	-11.9087
▁Kalorien	-11.9087
▁Kosovo	-11.9087
▁Notwendigkeit	-11.9087
▁PowerPoint	-11.9087
▁Schizophrenie	-11.9087
▁Selektion	-11.9087
▁Tempel	-11.9087
▁Türkei	-11.9087
▁Verschmutzung	-11.9087
▁Verzweiflung	-11.9087
▁Zentimeter	-11.9087
▁Zimbabwe	-11.9087
▁Zuhörer	-11.9087
▁cigarette	-11.9087
▁concentration	-11.9087
▁garbage	-11.9087
▁hungrig	-11.9087
▁iPad	-11.9087
▁regulate	-11.9087
▁reliable	-11.9087
▁überqueren	-11.9087
▁Turkey	-11.9087
▁beantwortet	-11.9087
▁chaos	-11.9087
▁ecological	-11.9087
▁garantiert	-11.9087
▁Mühe	-11.9087
▁cotton	-11.9087
▁Widerspruch	-11.9087
▁1991	-11.9087
▁Friday	-11.9087
▁verwandt	-11.9088
▁Solarenergie	-11.9088
▁stattfindet	-11.9088
▁friedlich	-11.9088
▁zahlreiche	-11.9088
▁Interpretation	-11.9088
▁Übersetzung	-11.9088
▁Supermarkt	-11.9088
▁investors	-11.9088
netzwerk	-11.9088
▁vorhersagen	-11.9088
▁glow	-11.9088
▁simultaneously	-11.9088
schütz	-11.9088
▁euer	-11.9088
▁fence	-11.9089
▁bull	-11.9089
▁metric	-11.9089
blatt	-11.9089
▁Jeff	-11.9089
geholt	-11.9089
stift	-11.9089
▁Alex	-11.909
▁wohnt	-11.909
▁Bären	-11.909
▁Coke	-11.9091
▁Iranian	-11.9091
▁verfügen	-11.9091
▁weekend	-11.9091
▁detection	-11.9092
▁Reis	-11.9092
▁instantly	-11.9093
papier	-11.9094
▁slime	-11.9094
ars	-11.9094
▁arrested	-11.9094
▁IT	-11.9096
▁Investoren	-11.9096
▁Algorithmus	-11.9096
▁mining	-11.9096
▁Hack	-11.9097
▁clothing	-11.9097
▁Schafe	-11.9098
luft	-11.9099
▁JA	-11.9101
▁Stimmt	-11.9102
lesen	-11.9103
fest	-11.9107
▁coin	-11.9109
▁sexuell	-11.9112
▁glückliche	-11.9113
▁logical	-11.9113
▁fressen	-11.9115
flu	-11.9118
▁heal	-11.912
▁schlägt	-11.912
spur	-11.9121
▁Zeichnungen	-11.9124
stücke	-11.9125
▁AO	-11.9126
▁mosquito	-11.9126
wort	-11.9126
▁cluster	-11.9127
▁client	-11.9128
▁allzu	-11.9128
▁investing	-11.9129
▁teure	-11.9129
▁crop	-11.913
▁Alltag	-11.9132
statt	-11.9133
ehe	-11.9141
▁circles	-11.9146
immer	-11.9146
▁bears	-11.9147
▁survived	-11.9154
farben	-11.9154
eilen	-11.9155
▁aufgeben	-11.916
▁shit	-11.9164
▁Schild	-11.9167
▁beziehen	-11.9169
▁Restaurants	-11.917
stunden	-11.9175
▁Interessante	-11.9177
▁Pur	-11.9178
achtet	-11.9181
▁Str	-11.9182
▁projection	-11.9185
▁Umgebungen	-11.9199
▁Kids	-11.9202
other	-11.9206
▁praktische	-11.921
eller	-11.921
space	-11.9213
oldest	-11.9213
anischen	-11.9215
▁instructions	-11.9216
▁naive	-11.9217
▁Wird	-11.9217
▁kauft	-11.9219
▁frisch	-11.922
▁Glücks	-11.9222
▁Flüchtlinge	-11.9223
▁Des	-11.9224
illion	-11.9226
lässt	-11.9226
▁stops	-11.9228
geschrieben	-11.9228
▁rever	-11.9229
▁Kontroll	-11.9232
▁shots	-11.9237
▁restaurants	-11.9241
bomb	-11.9243
ston	-11.9245
▁rituals	-11.9248
▁wiegt	-11.9248
istisch	-11.9248
▁gewaltig	-11.9251
▁Ameise	-11.9253
▁port	-11.9255
▁Architekt	-11.9255
▁niedrige	-11.9259
▁Kap	-11.9263
▁owned	-11.9264
▁lese	-11.9265
▁vorn	-11.9267
▁50-	-11.9269
▁alternatives	-11.9269
▁physicists	-11.9269
▁viewer	-11.9275
▁genaue	-11.9275
town	-11.928
stheorie	-11.9285
▁rivers	-11.9285
▁Home	-11.9288
new	-11.9288
▁physisch	-11.9291
▁Neugier	-11.9293
▁Diplomat	-11.9294
▁tragic	-11.9295
▁tracks	-11.9295
▁Amsterdam	-11.9296
▁Hospital	-11.9296
▁Ignoranz	-11.9296
▁Jedoch	-11.9296
▁Jäger	-11.9296
▁Michigan	-11.9296
▁Namibia	-11.9296
▁Nächstes	-11.9296
▁Sklaven	-11.9296
▁Sonntag	-11.9296
▁Stabilität	-11.9296
▁Vegas	-11.9296
▁Verwaltung	-11.9296
▁anzuwenden	-11.9296
▁awkward	-11.9296
▁closing	-11.9296
▁coordinate	-11.9296
▁fröhlich	-11.9296
▁generous	-11.9296
▁gestohlen	-11.9296
▁glacier	-11.9296
▁pencil	-11.9296
▁pioneer	-11.9296
▁spezialisiert	-11.9296
▁stattfand	-11.9296
▁structural	-11.9296
▁tsunami	-11.9296
▁LKW	-11.9296
▁Poesie	-11.9296
▁Unabhängigkeit	-11.9296
▁snake	-11.9296
▁Tunnel	-11.9296
▁Watch	-11.9296
▁gewohnt	-11.9296
▁tiefgreifend	-11.9296
▁Venus	-11.9296
▁vulnerability	-11.9296
▁1,5	-11.9296
▁Hardware	-11.9296
analyse	-11.9296
▁Tiefsee	-11.9296
▁straightforward	-11.9296
▁generell	-11.9296
▁Sudan	-11.9296
▁Wilson	-11.9296
▁quest	-11.9296
▁uncertainty	-11.9296
▁membrane	-11.9296
krebs	-11.9296
▁Wichtigkeit	-11.9296
▁calm	-11.9296
▁Hindu	-11.9296
▁Mentor	-11.9296
▁Ladung	-11.9296
▁blink	-11.9296
▁shipping	-11.9296
▁twin	-11.9297
▁Klick	-11.9297
▁representative	-11.9297
▁betonen	-11.9297
▁Automobil	-11.9297
▁drüber	-11.9297
▁rose	-11.9297
▁blah	-11.9297
▁static	-11.9298
▁addiction	-11.9298
▁Mutation	-11.9299
▁Elektronik	-11.93
▁bold	-11.93
▁February	-11.9301
▁primate	-11.9301
▁Hochzeit	-11.9301
▁Lewis	-11.9304
▁Should	-11.9305
▁pharmaceutical	-11.9305
▁zahlt	-11.9306
▁Abschnitt	-11.9306
▁PR	-11.9307
▁detector	-11.9307
▁Mont	-11.9307
30	-11.9307
▁constructed	-11.9308
▁aufwuchs	-11.931
▁Angel	-11.931
▁erwachsen	-11.9312
▁würdest	-11.9312
mmt	-11.9312
▁wahrhaftig	-11.9314
▁Sprecher	-11.9314
haut	-11.9314
▁Hello	-11.9319
▁rebel	-11.9322
▁verkaufte	-11.9323
▁Geschlechts	-11.9323
▁glasses	-11.9325
▁bush	-11.9325
ode	-11.9327
till	-11.9327
produkte	-11.9327
▁überlassen	-11.9328
▁restliche	-11.9329
mbo	-11.933
▁fusion	-11.9331
▁affects	-11.9334
▁accounts	-11.9334
▁entering	-11.9335
▁Emissionen	-11.9335
anlagen	-11.9339
stimme	-11.934
▁zeichnete	-11.9341
▁nochmals	-11.9341
▁hack	-11.9343
▁loan	-11.9343
▁MS	-11.9346
▁approaches	-11.9347
▁mitteilen	-11.9352
▁goods	-11.9352
▁counting	-11.9355
▁anzunehmen	-11.9356
aeda	-11.9356
▁körperlich	-11.9361
▁quo	-11.9367
▁researcher	-11.9367
▁specialist	-11.9371
getragen	-11.9371
▁finanziellen	-11.9372
▁Hof	-11.9373
▁ähnliches	-11.9373
▁purposes	-11.938
▁insights	-11.938
▁Cola	-11.9383
▁container	-11.9387
▁Profit	-11.9389
▁toast	-11.9389
▁pound	-11.9393
▁Untersuchungen	-11.9393
▁Juli	-11.9394
▁manager	-11.9396
▁lions	-11.9399
▁Farmer	-11.9401
▁erstmals	-11.9405
▁errors	-11.9406
place	-11.9417
▁Being	-11.9417
rechnen	-11.9419
▁recall	-11.9419
▁trainiert	-11.942
ude	-11.9425
wissen	-11.9426
▁rig	-11.9426
▁bedeutend	-11.9427
▁tie	-11.9428
nam	-11.9428
▁tötet	-11.9431
▁merkwürdig	-11.9431
▁Flut	-11.9433
wat	-11.9433
size	-11.9433
▁190	-11.9434
gefahren	-11.9435
friend	-11.9436
▁leichte	-11.9437
▁basieren	-11.9437
blin	-11.9438
bringt	-11.9438
point	-11.944
schlaf	-11.944
–	-11.9441
stellte	-11.9445
▁anhalten	-11.9448
ographic	-11.9453
▁semi	-11.9459
▁Stämme	-11.9465
▁aussah	-11.9466
▁Anlage	-11.947
▁spezifische	-11.947
▁satellites	-11.9471
rennen	-11.9474
namen	-11.9476
▁Glaube	-11.9484
▁Koch	-11.9487
▁Sound	-11.9489
▁disgust	-11.9494
▁unendliche	-11.9496
▁ego	-11.9501
▁Ang	-11.9501
zip	-11.9506
gespräch	-11.9508
▁Phoenix	-11.9508
▁Twenty	-11.9508
▁genuine	-11.9508
Syndrom	-11.9508
verschmutzung	-11.9508
▁1996	-11.9508
▁Arizona	-11.9508
▁Entropie	-11.9508
▁LHC	-11.9508
▁Liberia	-11.9508
▁Massachusetts	-11.9508
▁Tokyo	-11.9508
▁Transformation	-11.9508
▁administration	-11.9508
▁chamber	-11.9508
▁collision	-11.9508
▁cousin	-11.9508
▁eingeschränkt	-11.9508
▁endangered	-11.9508
▁ethnische	-11.9508
▁expedition	-11.9508
▁fokussieren	-11.9508
▁qualities	-11.9508
▁vergewaltigt	-11.9508
▁Getreide	-11.9508
▁Reaktor	-11.9508
▁Vinci	-11.9508
▁tendency	-11.9508
▁theoretical	-11.9508
▁Coast	-11.9508
▁amateur	-11.9508
▁scharf	-11.9508
▁Völkermord	-11.9508
▁Yemen	-11.9508
▁civic	-11.9508
▁Dutch	-11.9509
▁beschleunigen	-11.9509
▁canopy	-11.9509
▁Meeresspiegel	-11.9509
▁Arctic	-11.9509
▁gallon	-11.9509
▁Durchmesser	-11.9509
▁vereint	-11.9509
▁militärische	-11.9509
▁nutrients	-11.9509
▁annual	-11.9509
▁gentleman	-11.9509
▁Milk	-11.9509
▁defeat	-11.9509
▁spike	-11.9509
▁Drittens	-11.9509
▁burden	-11.9509
▁Stunt	-11.9509
▁Wörterbuch	-11.9509
▁Dankeschön	-11.9509
▁disability	-11.951
▁schlicht	-11.951
▁Raumschiff	-11.951
▁Autobahn	-11.951
▁nearby	-11.9511
▁pointing	-11.9511
▁Blitz	-11.9511
▁2015	-11.9512
▁98	-11.9512
▁desperately	-11.9512
▁unfold	-11.9512
▁located	-11.9512
▁Whereas	-11.9512
▁Klänge	-11.9513
▁predictable	-11.9513
▁Somalia	-11.9513
masse	-11.9514
▁morality	-11.9514
▁Rhythmus	-11.9515
▁Leder	-11.9515
long	-11.9515
▁geek	-11.9517
▁hierfür	-11.9518
lehnen	-11.9518
▁specialized	-11.9519
▁Moon	-11.9519
▁crap	-11.9523
▁widely	-11.9524
▁observed	-11.9525
▁float	-11.9525
▁delivery	-11.9526
▁comments	-11.9526
firmen	-11.9527
▁someday	-11.953
▁Einkommens	-11.9531
▁ignored	-11.9533
behörde	-11.9535
▁kannten	-11.9536
▁Ernte	-11.9536
▁performed	-11.9536
▁transportiert	-11.9539
▁sixth	-11.954
▁grasp	-11.9547
▁enabled	-11.955
▁educated	-11.955
▁Dienstleistung	-11.9552
wall	-11.9555
▁Kochen	-11.9556
▁philosopher	-11.9556
▁column	-11.9556
▁ritual	-11.9557
▁victim	-11.9558
▁dung	-11.9562
▁comic	-11.9564
▁estimates	-11.9566
▁format	-11.9569
▁giftige	-11.9572
using	-11.9573
▁tubes	-11.9573
▁jar	-11.9574
▁Mag	-11.9575
▁pigs	-11.9577
kampf	-11.9577
▁positions	-11.9579
▁warning	-11.9581
▁getragen	-11.9581
stil	-11.9587
▁connects	-11.9589
▁tissues	-11.9591
▁Point	-11.9594
liste	-11.9596
▁53	-11.9596
▁approaching	-11.96
▁obstacles	-11.9602
▁Fabriken	-11.9604
▁besides	-11.9606
inter	-11.9606
▁Spa	-11.961
▁Zweiten	-11.9614
ear	-11.9616
▁interessantes	-11.963
▁liest	-11.963
▁Oma	-11.9635
gro	-11.9637
▁Werde	-11.9643
▁Penn	-11.9644
▁gate	-11.9651
legung	-11.9652
stream	-11.9654
▁atom	-11.9656
▁Brennstoff	-11.9657
Zahl	-11.9659
world	-11.9659
▁guns	-11.9661
schwer	-11.9663
span	-11.9663
▁Impuls	-11.9665
Problem	-11.9667
ckel	-11.9672
As	-11.9681
▁Insekt	-11.9682
▁sorgt	-11.9682
late	-11.9683
▁Pf	-11.9688
▁450	-11.9689
▁Lehrerin	-11.9689
▁Nigerian	-11.9695
▁Affe	-11.9696
▁Schiffe	-11.9696
▁Rasse	-11.9698
▁erreichte	-11.97
▁Wolke	-11.9704
▁Treibhausgase	-11.9704
▁agents	-11.9706
▁Punkten	-11.9706
▁motivate	-11.9711
▁propose	-11.9711
läufe	-11.9713
▁addict	-11.9714
▁teenage	-11.9714
▁recruit	-11.9716
▁Februar	-11.9721
▁schweren	-11.9721
▁breite	-11.9721
▁lud	-11.9723
spiegel	-11.9723
▁streng	-11.9724
▁airplanes	-11.9725
▁Erscheinung	-11.9725
▁Seven	-11.9726
▁Knoten	-11.9726
▁1975	-11.9726
▁Although	-11.9726
▁Anwälte	-11.9726
▁Bakterium	-11.9726
▁Herzinfarkt	-11.9726
▁Indonesia	-11.9726
▁Medicine	-11.9726
▁Pennsylvania	-11.9726
▁Portugal	-11.9726
▁Security	-11.9726
▁Ungefähr	-11.9726
▁Zealand	-11.9726
▁acoustic	-11.9726
▁befragt	-11.9726
▁benannt	-11.9726
▁draussen	-11.9726
▁eBay	-11.9726
▁entropy	-11.9726
▁exposure	-11.9726
▁fortgeschritten	-11.9726
▁frustrated	-11.9726
▁gigantische	-11.9726
▁hypothesis	-11.9726
▁identifiziert	-11.9726
▁jahrelang	-11.9726
▁konstant	-11.9726
▁sacred	-11.9726
▁scheitern	-11.9726
▁silver	-11.9726
▁spektakulär	-11.9726
▁temple	-11.9726
▁vergrößern	-11.9726
▁vertikal	-11.9726
▁Anliegen	-11.9726
▁serving	-11.9726
▁versorgt	-11.9726
▁Melodie	-11.9726
▁peinlich	-11.9726
▁schwanger	-11.9726
▁verarbeitet	-11.9726
▁daneben	-11.9726
▁harness	-11.9726
▁Rekord	-11.9726
▁Motto	-11.9726
▁contemporary	-11.9726
▁broadcast	-11.9726
▁aufgezeichnet	-11.9726
▁Führungskräfte	-11.9726
▁Heimatstadt	-11.9726
▁tätig	-11.9726
▁Einzige	-11.9726
▁prüfen	-11.9726
▁division	-11.9726
▁rubber	-11.9726
▁Schwerkraft	-11.9726
▁supermarket	-11.9726
▁darzustellen	-11.9726
▁Selbstmord	-11.9726
▁Jerry	-11.9726
ounce	-11.9726
▁dawn	-11.9726
▁stoßen	-11.9726
▁externe	-11.9726
▁fancy	-11.9727
▁Hafen	-11.9727
▁crew	-11.9727
▁Unfälle	-11.9727
▁steril	-11.9727
▁Mittelpunkt	-11.9727
▁sake	-11.9728
▁paralyzed	-11.9728
▁Ausgang	-11.9728
▁Redner	-11.9728
▁meme	-11.9729
▁Normal	-11.973
▁Spain	-11.9731
▁stamp	-11.9731
▁Trade	-11.9731
▁March	-11.9732
▁slip	-11.9732
▁rechtliche	-11.9735
▁Konzert	-11.9736
▁Both	-11.9736
▁Sputnik	-11.9737
▁hunting	-11.9737
▁Rente	-11.9738
▁niemandem	-11.9739
▁eingeschlossen	-11.9741
▁Anweisungen	-11.9741
▁TEDx	-11.9741
▁grip	-11.9744
▁Cape	-11.9748
▁items	-11.9748
▁forming	-11.975
▁printed	-11.9751
link	-11.9751
▁Kreaturen	-11.9752
▁Rituale	-11.9752
▁Dir	-11.9753
Are	-11.9755
▁Psychologen	-11.9756
▁educate	-11.9757
▁encouraged	-11.976
▁rethink	-11.976
▁jumped	-11.9761
▁entrepreneur	-11.9762
risch	-11.9764
▁perfekten	-11.9765
▁geleitet	-11.9766
heil	-11.977
▁graduated	-11.9771
▁upside	-11.9771
ereien	-11.9772
▁Hyper	-11.9777
maßnahme	-11.9778
▁strike	-11.9779
▁hormone	-11.9779
▁password	-11.978
▁economist	-11.978
▁tribe	-11.9782
▁panel	-11.9782
▁vent	-11.9785
▁ages	-11.9789
träger	-11.9789
▁flowing	-11.9793
▁2,5	-11.9795
▁umsetzen	-11.9796
▁genetics	-11.98
▁Deine	-11.98
▁Robotern	-11.9801
▁neuesten	-11.9802
▁mayor	-11.9803
aku	-11.9808
▁Nazi	-11.9811
▁Allein	-11.9813
2.	-11.9817
▁47	-11.9822
▁Grundlagen	-11.9823
▁leeren	-11.9826
▁Kurse	-11.9828
▁armed	-11.9831
▁staying	-11.9833
▁rape	-11.9834
▁fee	-11.9834
letting	-11.984
▁82	-11.9843
▁demands	-11.9845
▁puzzles	-11.9852
▁immun	-11.9855
▁teurer	-11.9857
▁radikale	-11.9862
▁engines	-11.9864
▁professionals	-11.9866
wig	-11.9869
▁prisoners	-11.987
▁Geb	-11.9874
uo	-11.9875
abhängig	-11.9878
pha	-11.9879
bleiben	-11.9881
▁tone	-11.9888
▁900	-11.989
▁electron	-11.989
▁beating	-11.9892
▁chances	-11.9902
▁Krankenhäuser	-11.9905
▁Arch	-11.9905
▁weise	-11.9908
▁sinken	-11.9908
▁nützliche	-11.9911
▁Infektion	-11.9912
▁germ	-11.9913
▁beam	-11.9915
more	-11.9915
▁visuell	-11.9917
▁2004,	-11.9919
▁Jet	-11.9922
▁fundamentale	-11.9922
▁emails	-11.9924
▁powers	-11.9926
wohn	-11.9927
▁Effekte	-11.9929
Diese	-11.9929
▁individuell	-11.9931
▁BP	-11.9931
▁Dokument	-11.9932
assembl	-11.9933
▁fibers	-11.9935
▁fantastischen	-11.9936
▁fehlen	-11.9937
eid	-11.9941
two	-11.9943
gestalt	-11.9944
methode	-11.9944
schirm	-11.9947
▁horizon	-11.9947
▁Außen	-11.9948
▁erwachsene	-11.9948
▁Photo	-11.9948
Herangehensweise	-11.9948
uantenmechanik	-11.9948
▁Behauptung	-11.9948
▁Edinburgh	-11.9948
▁Elizabeth	-11.9948
▁Gegner	-11.9948
▁Großeltern	-11.9948
▁Hektar	-11.9948
▁Kiribati	-11.9948
▁Suddenly	-11.9948
▁Tsunami	-11.9948
▁Wünsche	-11.9948
[...]
